{
  "version": "1.0",
  "truncation": null,
  "padding": null,
  "added_tokens": [
    {
      "id": 0,
      "content": "<|endoftext|>",
      "single_word": false,
      "lstrip": false,
      "rstrip": false,
      "normalized": false,
      "special": true
    },
    {
      "id": 1,
      "content": "<|im_start|>",
      "single_word": false,
      "lstrip": false,
      "rstrip": false,
      "normalized": false,
      "special": true
    },
    {
      "id": 2,
      "content": "<|im_end|>",
      "single_word": false,
      "lstrip": false,
      "rstrip": false,
      "normalized": false,
      "special": true
    },
    {
      "id": 3,
      "content": "<|pad|>",
      "single_word": false,
      "lstrip": false,
      "rstrip": false,
      "normalized": false,
      "special": true
    }
  ],
  "normalizer": {
    "type": "NFC"
  },
  "pre_tokenizer": {
    "type": "ByteLevel",
    "add_prefix_space": false,
    "trim_offsets": true,
    "use_regex": true
  },
  "post_processor": {
    "type": "ByteLevel",
    "add_prefix_space": true,
    "trim_offsets": false,
    "use_regex": true
  },
  "decoder": {
    "type": "ByteLevel",
    "add_prefix_space": true,
    "trim_offsets": true,
    "use_regex": true
  },
  "model": {
    "type": "BPE",
    "dropout": null,
    "unk_token": null,
    "continuing_subword_prefix": null,
    "end_of_word_suffix": null,
    "fuse_unk": false,
    "byte_fallback": false,
    "ignore_merges": false,
    "vocab": {
      "<|endoftext|>": 0,
      "<|im_start|>": 1,
      "<|im_end|>": 2,
      "<|pad|>": 3,
      "!": 4,
      "\"": 5,
      "#": 6,
      "$": 7,
      "%": 8,
      "&": 9,
      "'": 10,
      "(": 11,
      ")": 12,
      "*": 13,
      "+": 14,
      ",": 15,
      "-": 16,
      ".": 17,
      "/": 18,
      "0": 19,
      "1": 20,
      "2": 21,
      "3": 22,
      "4": 23,
      "5": 24,
      "6": 25,
      "7": 26,
      "8": 27,
      "9": 28,
      ":": 29,
      ";": 30,
      "<": 31,
      "=": 32,
      ">": 33,
      "?": 34,
      "@": 35,
      "A": 36,
      "B": 37,
      "C": 38,
      "D": 39,
      "E": 40,
      "F": 41,
      "G": 42,
      "H": 43,
      "I": 44,
      "J": 45,
      "K": 46,
      "L": 47,
      "M": 48,
      "N": 49,
      "O": 50,
      "P": 51,
      "Q": 52,
      "R": 53,
      "S": 54,
      "T": 55,
      "U": 56,
      "V": 57,
      "W": 58,
      "X": 59,
      "Y": 60,
      "Z": 61,
      "[": 62,
      "\\": 63,
      "]": 64,
      "^": 65,
      "_": 66,
      "`": 67,
      "a": 68,
      "b": 69,
      "c": 70,
      "d": 71,
      "e": 72,
      "f": 73,
      "g": 74,
      "h": 75,
      "i": 76,
      "j": 77,
      "k": 78,
      "l": 79,
      "m": 80,
      "n": 81,
      "o": 82,
      "p": 83,
      "q": 84,
      "r": 85,
      "s": 86,
      "t": 87,
      "u": 88,
      "v": 89,
      "w": 90,
      "x": 91,
      "y": 92,
      "z": 93,
      "{": 94,
      "|": 95,
      "}": 96,
      "~": 97,
      "¡": 98,
      "¢": 99,
      "£": 100,
      "¤": 101,
      "¥": 102,
      "¦": 103,
      "§": 104,
      "¨": 105,
      "©": 106,
      "ª": 107,
      "«": 108,
      "¬": 109,
      "®": 110,
      "¯": 111,
      "°": 112,
      "±": 113,
      "²": 114,
      "³": 115,
      "´": 116,
      "µ": 117,
      "¶": 118,
      "·": 119,
      "¸": 120,
      "¹": 121,
      "º": 122,
      "»": 123,
      "¼": 124,
      "½": 125,
      "¾": 126,
      "¿": 127,
      "À": 128,
      "Á": 129,
      "Â": 130,
      "Ã": 131,
      "Ä": 132,
      "Å": 133,
      "Æ": 134,
      "Ç": 135,
      "È": 136,
      "É": 137,
      "Ê": 138,
      "Ë": 139,
      "Ì": 140,
      "Í": 141,
      "Î": 142,
      "Ï": 143,
      "Ð": 144,
      "Ñ": 145,
      "Ò": 146,
      "Ó": 147,
      "Ô": 148,
      "Õ": 149,
      "Ö": 150,
      "×": 151,
      "Ø": 152,
      "Ù": 153,
      "Ú": 154,
      "Û": 155,
      "Ü": 156,
      "Ý": 157,
      "Þ": 158,
      "ß": 159,
      "à": 160,
      "á": 161,
      "â": 162,
      "ã": 163,
      "ä": 164,
      "å": 165,
      "æ": 166,
      "ç": 167,
      "è": 168,
      "é": 169,
      "ê": 170,
      "ë": 171,
      "ì": 172,
      "í": 173,
      "î": 174,
      "ï": 175,
      "ð": 176,
      "ñ": 177,
      "ò": 178,
      "ó": 179,
      "ô": 180,
      "õ": 181,
      "ö": 182,
      "÷": 183,
      "ø": 184,
      "ù": 185,
      "ú": 186,
      "û": 187,
      "ü": 188,
      "ý": 189,
      "þ": 190,
      "ÿ": 191,
      "Ā": 192,
      "ā": 193,
      "Ă": 194,
      "ă": 195,
      "Ą": 196,
      "ą": 197,
      "Ć": 198,
      "ć": 199,
      "Ĉ": 200,
      "ĉ": 201,
      "Ċ": 202,
      "ċ": 203,
      "Č": 204,
      "č": 205,
      "Ď": 206,
      "ď": 207,
      "Đ": 208,
      "đ": 209,
      "Ē": 210,
      "ē": 211,
      "Ĕ": 212,
      "ĕ": 213,
      "Ė": 214,
      "ė": 215,
      "Ę": 216,
      "ę": 217,
      "Ě": 218,
      "ě": 219,
      "Ĝ": 220,
      "ĝ": 221,
      "Ğ": 222,
      "ğ": 223,
      "Ġ": 224,
      "ġ": 225,
      "Ģ": 226,
      "ģ": 227,
      "Ĥ": 228,
      "ĥ": 229,
      "Ħ": 230,
      "ħ": 231,
      "Ĩ": 232,
      "ĩ": 233,
      "Ī": 234,
      "ī": 235,
      "Ĭ": 236,
      "ĭ": 237,
      "Į": 238,
      "į": 239,
      "İ": 240,
      "ı": 241,
      "Ĳ": 242,
      "ĳ": 243,
      "Ĵ": 244,
      "ĵ": 245,
      "Ķ": 246,
      "ķ": 247,
      "ĸ": 248,
      "Ĺ": 249,
      "ĺ": 250,
      "Ļ": 251,
      "ļ": 252,
      "Ľ": 253,
      "ľ": 254,
      "Ŀ": 255,
      "ŀ": 256,
      "Ł": 257,
      "ł": 258,
      "Ń": 259,
      "Ġd": 260,
      "Ġa": 261,
      "Ġe": 262,
      "Ġp": 263,
      "os": 264,
      "ra": 265,
      "Ġc": 266,
      "Ġde": 267,
      "nt": 268,
      "re": 269,
      "Ġs": 270,
      "as": 271,
      "er": 272,
      "qu": 273,
      "es": 274,
      "Ġm": 275,
      "Ã£": 276,
      "Ġco": 277,
      "Ġo": 278,
      "is": 279,
      "Ã£o": 280,
      "Ġn": 281,
      "ad": 282,
      "or": 283,
      "ar": 284,
      "in": 285,
      "Ġt": 286,
      "Ã§": 287,
      "Ġqu": 288,
      "ent": 289,
      "al": 290,
      "Ġf": 291,
      "ic": 292,
      "ia": 293,
      "Ġque": 294,
      "id": 295,
      "um": 296,
      "ro": 297,
      "Ã©": 298,
      "em": 299,
      "nd": 300,
      "Ã¡": 301,
      "it": 302,
      "Ġcom": 303,
      "st": 304,
      "am": 305,
      "Ġv": 306,
      "el": 307,
      "im": 308,
      "Ġdo": 309,
      "ara": 310,
      "Ġum": 311,
      "Ã§Ã£o": 312,
      "en": 313,
      "io": 314,
      "Ġre": 315,
      "Ġse": 316,
      "Ġem": 317,
      "Ġda": 318,
      "ÃŃ": 319,
      "an": 320,
      "il": 321,
      "Ġpara": 322,
      "Ġl": 323,
      "res": 324,
      "ta": 325,
      "iv": 326,
      "ĠA": 327,
      "Ġb": 328,
      "ol": 329,
      "Ġno": 330,
      "ndo": 331,
      "ĠC": 332,
      "to": 333,
      "ado": 334,
      "Ã³": 335,
      "ul": 336,
      "nc": 337,
      "ente": 338,
      "so": 339,
      "od": 340,
      "ĠÃ©": 341,
      "Ãª": 342,
      "Ġest": 343,
      "ĠP": 344,
      "ais": 345,
      "ec": 346,
      "ei": 347,
      "âĢ": 348,
      "Ġg": 349,
      "ĠS": 350,
      "Ġin": 351,
      "ĠE": 352,
      "Ġpro": 353,
      "ho": 354,
      "ri": 355,
      "at": 356,
      "ut": 357,
      "idad": 358,
      "Ġuma": 359,
      "aÃ§Ã£o": 360,
      "Ġas": 361,
      "oc": 362,
      "us": 363,
      "gu": 364,
      "Ġes": 365,
      "om": 366,
      "on": 367,
      "Ġpor": 368,
      "ĠM": 369,
      "Ġos": 370,
      "iz": 371,
      "ento": 372,
      "se": 373,
      "ir": 374,
      "Ġcon": 375,
      "Ġna": 376,
      "ĠnÃ£o": 377,
      "do": 378,
      "Ãµ": 379,
      "Ġsu": 380,
      "nte": 381,
      "Ãµes": 382,
      "te": 383,
      "ha": 384,
      "ica": 385,
      "le": 386,
      "ada": 387,
      "idade": 388,
      "ou": 389,
      "ĠD": 390,
      "ist": 391,
      "ĠÃ": 392,
      "Ġal": 393,
      "ito": 394,
      "Ġex": 395,
      "Ġser": 396,
      "Ġap": 397,
      "era": 398,
      "Ġmais": 399,
      "ac": 400,
      "Ġj": 401,
      "ion": 402,
      "ant": 403,
      "ras": 404,
      "ĠO": 405,
      "ig": 406,
      "ed": 407,
      "Ġdes": 408,
      "ma": 409,
      "Ġ(": 410,
      "ĠB": 411,
      "et": 412,
      "Ã§Ãµes": 413,
      "Ġat": 414,
      "ando": 415,
      "Ġmu": 416,
      "Ġac": 417,
      "po": 418,
      "ura": 419,
      "ĠR": 420,
      "ĠâĢ": 421,
      "Ġcomo": 422,
      "ĠN": 423,
      "Ġdos": 424,
      "Ġpel": 425,
      "ĠT": 426,
      "ve": 427,
      "ados": 428,
      "Ġpr": 429,
      "ĠF": 430,
      "Ġ1": 431,
      "sa": 432,
      "un": 433,
      "Ġtra": 434,
      "Ġfo": 435,
      "da": 436,
      "Ġou": 437,
      "Ãº": 438,
      "Ã©m": 439,
      "ab": 440,
      "Ġ2": 441,
      "Ġcont": 442,
      "Ġtem": 443,
      "Ġpod": 444,
      "ido": 445,
      "Ã§a": 446,
      "ai": 447,
      "Ġpre": 448,
      "ncia": 449,
      "if": 450,
      "Ġh": 451,
      "Ġao": 452,
      "de": 453,
      "Ġper": 454,
      "ob": 455,
      "ria": 456,
      "ĠI": 457,
      "ag": 458,
      "ida": 459,
      "ont": 460,
      "Ġan": 461,
      "ico": 462,
      "ros": 463,
      "rio": 464,
      "mo": 465,
      "Ġnos": 466,
      "ĠL": 467,
      "Ġi": 468,
      "ip": 469,
      "ĠÃł": 470,
      "va": 471,
      "esso": 472,
      "eg": 473,
      "est": 474,
      "Ġim": 475,
      "og": 476,
      "Ġent": 477,
      "Ġcomp": 478,
      "ur": 479,
      "ĠG": 480,
      "Ġfa": 481,
      "Ġfor": 482,
      "ens": 483,
      "ram": 484,
      "ce": 485,
      "Ġdas": 486,
      "Ġpar": 487,
      "ial": 488,
      "ias": 489,
      "vel": 490,
      "Ãªncia": 491,
      "nde": 492,
      "Ġme": 493,
      "Ġtod": 494,
      "Ġres": 495,
      "âĢĿ": 496,
      "ocÃª": 497,
      "la": 498,
      "Ġesp": 499,
      "Ġsem": 500,
      "Ġsua": 501,
      "eira": 502,
      "ĠJ": 503,
      "Ġter": 504,
      "mente": 505,
      "ver": 506,
      "co": 507,
      "du": 508,
      "ĠV": 509,
      "ere": 510,
      "Ġen": 511,
      "Ġseu": 512,
      "amento": 513,
      "Ġdis": 514,
      "imento": 515,
      "que": 516,
      "amente": 517,
      "por": 518,
      "pl": 519,
      "ru": 520,
      "Ġpos": 521,
      "ĠâĢľ": 522,
      "amb": 523,
      "Ġmas": 524,
      "he": 525,
      "Ġout": 526,
      "bl": 527,
      "ĠvocÃª": 528,
      "adas": 529,
      "for": 530,
      "ess": 531,
      "Ġfoi": 532,
      "eiro": 533,
      "go": 534,
      "Ġsob": 535,
      "Ġam": 536,
      "ap": 537,
      "pres": 538,
      "Ġ20": 539,
      "Ġfaz": 540,
      "Ġar": 541,
      "Ġho": 542,
      "Ġve": 543,
      "Ġmes": 544,
      "ĠsÃ£o": 545,
      "entos": 546,
      "ambÃ©m": 547,
      "ns": 548,
      "Ġint": 549,
      "ÃŃc": 550,
      "pre": 551,
      "ja": 552,
      "inha": 553,
      "Ġsegu": 554,
      "ĠU": 555,
      "are": 556,
      "Ġsobre": 557,
      "ot": 558,
      "Ġch": 559,
      "Ã¡rio": 560,
      "Ã¢": 561,
      "ĠtambÃ©m": 562,
      "Ġcas": 563,
      "ios": 564,
      "Ã§o": 565,
      "ina": 566,
      "ĠH": 567,
      "Ġgra": 568,
      "no": 569,
      "rar": 570,
      "Ġesc": 571,
      "amos": 572,
      "ud": 573,
      "ib": 574,
      "Ġele": 575,
      "..": 576,
      "ita": 577,
      "ntes": 578,
      "aliz": 579,
      "pos": 580,
      "icas": 581,
      "ire": 582,
      "Ġab": 583,
      "Ġob": 584,
      "Ġpas": 585,
      "Ġass": 586,
      "ista": 587,
      "Ġpode": 588,
      "Ġpelo": 589,
      "Ġmuito": 590,
      "bal": 591,
      "ĠestÃ¡": 592,
      "Ġis": 593,
      "ade": 594,
      "ter": 595,
      "ivo": 596,
      "Ġentre": 597,
      "Ġpesso": 598,
      "Ġver": 599,
      "Ã¡ri": 600,
      "ult": 601,
      "Ġrec": 602,
      "me": 603,
      "Ġqual": 604,
      "ional": 605,
      "entes": 606,
      "Ġcor": 607,
      "Ġpela": 608,
      "Ġcons": 609,
      "anto": 610,
      "itu": 611,
      "ĠâĢĵ": 612,
      "iÃ§Ã£o": 613,
      "Ġcar": 614,
      "ite": 615,
      "end": 616,
      "Ġcl": 617,
      "per": 618,
      "itos": 619,
      "icos": 620,
      "idades": 621,
      "Ġpart": 622,
      "iver": 623,
      "Ġel": 624,
      "ĠjÃ¡": 625,
      "erc": 626,
      "inda": 627,
      "Ġdia": 628,
      "Qu": 629,
      "ific": 630,
      "idos": 631,
      "00": 632,
      "Ġtrabal": 633,
      "Ã³s": 634,
      "inh": 635,
      "Ġpo": 636,
      "Ġle": 637,
      "je": 638,
      "ing": 639,
      "gra": 640,
      "ost": 641,
      "Ġeu": 642,
      "Ã´": 643,
      "iva": 644,
      "ora": 645,
      "Ġdest": 646,
      "rasil": 647,
      "ĠatÃ©": 648,
      "Ġenc": 649,
      "vol": 650,
      "ador": 651,
      "udo": 652,
      "Ġ-": 653,
      "ĠEst": 654,
      "av": 655,
      "Ġpres": 656,
      "Ġte": 657,
      "Ġaqu": 658,
      "Ġad": 659,
      "cis": 660,
      "ust": 661,
      "mos": 662,
      "vi": 663,
      "ĠDe": 664,
      "Ġ3": 665,
      "ĠÃ¡": 666,
      "enc": 667,
      "Ġposs": 668,
      "Ġisso": 669,
      "hec": 670,
      "nda": 671,
      "Ġmel": 672,
      "pe": 673,
      "Ġnas": 674,
      "Ġmesmo": 675,
      "Ġnov": 676,
      "ÃŃt": 677,
      "ÃŃvel": 678,
      "ima": 679,
      "tos": 680,
      "Ġvez": 681,
      "ÃŃs": 682,
      "inc": 683,
      "Ġseus": 684,
      "Ġainda": 685,
      "Ġfu": 686,
      "aria": 687,
      "Ġproc": 688,
      "sos": 689,
      "ulo": 690,
      "Ġbem": 691,
      "Ġanos": 692,
      "ern": 693,
      "ĠCom": 694,
      "Ġus": 695,
      "Ġpra": 696,
      "ira": 697,
      "Ġof": 698,
      "Ġprim": 699,
      "tu": 700,
      "Ġdire": 701,
      "iss": 702,
      "Ġ201": 703,
      "ix": 704,
      "Ã¡rios": 705,
      "),": 706,
      "Ġquando": 707,
      "Ġinc": 708,
      "Ġreg": 709,
      "lo": 710,
      "Ã§as": 711,
      "nÃ§a": 712,
      "ca": 713,
      "rg": 714,
      "idas": 715,
      "Ġfal": 716,
      "almente": 717,
      "Ġtodos": 718,
      "Ġrel": 719,
      "emb": 720,
      "Ġr": 721,
      "hor": 722,
      "iliz": 723,
      "Ġfazer": 724,
      "Ġtempo": 725,
      "orn": 726,
      "fe": 727,
      "aix": 728,
      "eb": 729,
      "ilh": 730,
      "Ġmar": 731,
      "Ġ\"": 732,
      "aram": 733,
      "anh": 734,
      "rig": 735,
      "Ġmen": 736,
      "Ġcam": 737,
      "ĠprÃ³": 738,
      "nto": 739,
      "ĠAl": 740,
      "min": 741,
      "Ã¡t": 742,
      "enas": 743,
      "indo": 744,
      "Ġmod": 745,
      "Ġforma": 746,
      "Ġcol": 747,
      "Ġpessoas": 748,
      ").": 749,
      "ov": 750,
      "Ãªs": 751,
      "Ġesta": 752,
      "Ġfe": 753,
      "Ġconc": 754,
      "gum": 755,
      "Ġca": 756,
      "ema": 757,
      "ĠPor": 758,
      "Ġempres": 759,
      "Ġpa": 760,
      "Ġvida": 761,
      "Ġra": 762,
      "Ġaos": 763,
      "Ġfin": 764,
      "Ġpl": 765,
      "Ġeste": 766,
      "veis": 767,
      "Ġprof": 768,
      "Ġsa": 769,
      "emos": 770,
      "Ġdif": 771,
      "ĠSe": 772,
      "quer": 773,
      "Ġsab": 774,
      "ĠÃº": 775,
      "Ġro": 776,
      "Ġlu": 777,
      "inho": 778,
      "za": 779,
      "rem": 780,
      "Ġespec": 781,
      "up": 782,
      "Ġpoder": 783,
      "ana": 784,
      "ĠEs": 785,
      "tar": 786,
      "ĠsÃ³": 787,
      "Ã©c": 788,
      "lu": 789,
      "Ã©d": 790,
      "este": 791,
      "ase": 792,
      "ilidade": 793,
      "eral": 794,
      "âĢĿ,": 795,
      "anc": 796,
      "Ġop": 797,
      "ino": 798,
      "Ġsoc": 799,
      "Ġind": 800,
      "Ġpol": 801,
      "Ġcontra": 802,
      "iais": 803,
      "Ãºbl": 804,
      "ĠAs": 805,
      "Ġcr": 806,
      "Ġid": 807,
      "ivos": 808,
      "sas": 809,
      "enta": 810,
      "Ġprecis": 811,
      "ele": 812,
      "iu": 813,
      "ĠBrasil": 814,
      "Ġdesc": 815,
      "Ġvis": 816,
      "dos": 817,
      "itar": 818,
      "Ġinfor": 819,
      "imo": 820,
      "ga": 821,
      "Ã¡vel": 822,
      "pon": 823,
      "Ġimpor": 824,
      "ela": 825,
      "Ġtrans": 826,
      "Ġcap": 827,
      "agem": 828,
      "tas": 829,
      "ĠQu": 830,
      "aior": 831,
      "Ġsuas": 832,
      "Ã§os": 833,
      "Ġalgum": 834,
      "Ġconf": 835,
      "ceb": 836,
      "adores": 837,
      "Ġprodu": 838,
      "Ġinte": 839,
      "ecess": 840,
      "Ġcria": 841,
      "na": 842,
      "ĠhÃ¡": 843,
      "Ġconhec": 844,
      "Ã¡s": 845,
      "iente": 846,
      "Ġval": 847,
      "raÃ§Ã£o": 848,
      "art": 849,
      "Ġmaior": 850,
      "ero": 851,
      "Ġencont": 852,
      "Ġtr": 853,
      "igo": 854,
      "Ġcada": 855,
      "itas": 856,
      "Ġsempre": 857,
      "Ġag": 858,
      "esta": 859,
      "Ġpass": 860,
      "Ġma": 861,
      "Ġfil": 862,
      "Ã³ria": 863,
      "Ġir": 864,
      "ĠW": 865,
      "Ġaf": 866,
      "gem": 867,
      "Ġnecess": 868,
      "Ġman": 869,
      "Ġdiz": 870,
      "Ġsol": 871,
      "Ġha": 872,
      "rib": 873,
      "Ġvai": 874,
      "iÃ£o": 875,
      "Ġonde": 876,
      "Ã©s": 877,
      "stitu": 878,
      "icip": 879,
      "Ġev": 880,
      "Ġprinc": 881,
      "Ġoutros": 882,
      "Ġescol": 883,
      "Ġsim": 884,
      "Ġ4": 885,
      "istas": 886,
      "entar": 887,
      "pois": 888,
      "ano": 889,
      "segu": 890,
      "ĠCon": 891,
      "Ġrealiz": 892,
      "Ġdeix": 893,
      "Ġun": 894,
      "ular": 895,
      "orre": 896,
      "iar": 897,
      "Ġcer": 898,
      "ula": 899,
      "...": 900,
      "eiros": 901,
      "icar": 902,
      "ior": 903,
      "Ġdesen": 904,
      "eu": 905,
      "jet": 906,
      "antes": 907,
      "ĠÃłs": 908,
      "Ġtudo": 909,
      "Ġmelhor": 910,
      "elo": 911,
      "Ġera": 912,
      "ub": 913,
      "Ġela": 914,
      "Ġ19": 915,
      "Ġano": 916,
      "Ġ5": 917,
      "fer": 918,
      "Ġvol": 919,
      "ne": 920,
      "Ġtrabalho": 921,
      "Ġut": 922,
      "Ġjog": 923,
      "ismo": 924,
      "ncias": 925,
      "Ġmundo": 926,
      "int": 927,
      "erv": 928,
      "iam": 929,
      "ual": 930,
      "tante": 931,
      "ord": 932,
      "Ġapenas": 933,
      "ĠestÃ£o": 934,
      "Ġdifere": 935,
      "pa": 936,
      "Ġinv": 937,
      "Ġequ": 938,
      "ĠÃī": 939,
      "uto": 940,
      "Ġpe": 941,
      "Ġparte": 942,
      "Ġseja": 943,
      "Ġloc": 944,
      "Ġpou": 945,
      "utos": 946,
      "ĠEm": 947,
      "Ġassim": 948,
      "ĠPa": 949,
      "sÃ£o": 950,
      "gar": 951,
      "Ġgrande": 952,
      "volv": 953,
      "isa": 954,
      "Ġalgu": 955,
      "ĠPro": 956,
      "hos": 957,
      "imentos": 958,
      "Ġutiliz": 959,
      "Ġav": 960,
      "Ġaj": 961,
      "endo": 962,
      "Ġapres": 963,
      "rav": 964,
      "Ãªm": 965,
      "Ġsent": 966,
      "dade": 967,
      "rat": 968,
      "ÃŃn": 969,
      "Ġart": 970,
      "Ġporque": 971,
      "Com": 972,
      "Ġant": 973,
      "Ġoc": 974,
      "Ġquem": 975,
      "Ġneg": 976,
      "Ġconta": 977,
      "Ġpes": 978,
      "ÃŃl": 979,
      "over": 980,
      "ĠNo": 981,
      "inu": 982,
      "ĠserÃ¡": 983,
      "of": 984,
      "Ġcheg": 985,
      "urante": 986,
      "Ġesse": 987,
      "Ġforam": 988,
      "ionais": 989,
      "uro": 990,
      "tor": 991,
      "iÃªncia": 992,
      "her": 993,
      "Ġcome": 994,
      "Ġpodem": 995,
      "Ġsal": 996,
      "son": 997,
      "Ġdeve": 998,
      "ĠpÃºbl": 999,
      "20": 1000,
      "Ġqualquer": 1001,
      "Ġform": 1002,
      "ĠIn": 1003,
      "Ġdev": 1004,
      "Ġliv": 1005,
      "Ġmed": 1006,
      "Ġmin": 1007,
      "Ã¡ria": 1008,
      "Ġtodo": 1009,
      "Ġped": 1010,
      "nder": 1011,
      "Ġmat": 1012,
      "Ġprincip": 1013,
      "ĠOs": 1014,
      "Ġhist": 1015,
      "aÃ§Ãµes": 1016,
      "ign": 1017,
      "Ã´n": 1018,
      "ĠK": 1019,
      "Ġinf": 1020,
      "ES": 1021,
      "Ġnum": 1022,
      "Ġconst": 1023,
      "com": 1024,
      "Ġperm": 1025,
      "enh": 1026,
      "Ġdef": 1027,
      "con": 1028,
      "Ġmil": 1029,
      "Ġaqui": 1030,
      "Ġju": 1031,
      "ital": 1032,
      "Ãªncias": 1033,
      "olog": 1034,
      "Ġservi": 1035,
      "Ġlev": 1036,
      "das": 1037,
      "az": 1038,
      "ĠpaÃŃs": 1039,
      "ine": 1040,
      "Ġessa": 1041,
      "Ġcond": 1042,
      "iÃ§Ãµes": 1043,
      "RA": 1044,
      "har": 1045,
      "ĠPara": 1046,
      "lt": 1047,
      "ĠUn": 1048,
      "gora": 1049,
      "Ġreceb": 1050,
      "Ġpont": 1051,
      "ĠMas": 1052,
      "unc": 1053,
      "izaÃ§Ã£o": 1054,
      "enÃ§Ã£o": 1055,
      "ĠprÃ³p": 1056,
      "Ġmom": 1057,
      "Ġcur": 1058,
      "Ġti": 1059,
      "ĠSÃ£o": 1060,
      "Ġw": 1061,
      "Ġsub": 1062,
      "Ġhom": 1063,
      "amentos": 1064,
      "Ġdois": 1065,
      "cer": 1066,
      "âĢĿ.": 1067,
      "ena": 1068,
      "idente": 1069,
      "Ġcomun": 1070,
      "Ġminha": 1071,
      "orte": 1072,
      "ĠMar": 1073,
      "icaÃ§Ã£o": 1074,
      "ĠNÃ£o": 1075,
      "rado": 1076,
      "Ġtorn": 1077,
      "pec": 1078,
      "Ġorg": 1079,
      "plo": 1080,
      "Ġespecial": 1081,
      "Ġdec": 1082,
      "Ġmeu": 1083,
      "eram": 1084,
      "orm": 1085,
      "Ġapro": 1086,
      "ivas": 1087,
      "ĠRe": 1088,
      "ientes": 1089,
      "oa": 1090,
      "Ġpois": 1091,
      "ran": 1092,
      "imos": 1093,
      "esse": 1094,
      "Ġdiver": 1095,
      "Ġins": 1096,
      "ÃŃcio": 1097,
      "Ġdu": 1098,
      "Ġdem": 1099,
      "Ġdias": 1100,
      "Ġsist": 1101,
      "Ġcaso": 1102,
      "Ġeles": 1103,
      "fic": 1104,
      "Ã¡l": 1105,
      "Ã¢ncia": 1106,
      "ie": 1107,
      "Ġconsegu": 1108,
      "Ġcasa": 1109,
      "vo": 1110,
      "Ġdepois": 1111,
      "red": 1112,
      "Âº": 1113,
      "tura": 1114,
      "erg": 1115,
      "Ġequip": 1116,
      "utor": 1117,
      "ral": 1118,
      "gua": 1119,
      "Ġprobl": 1120,
      "Ġamb": 1121,
      "Ġempresa": 1122,
      "arÃ¡": 1123,
      "para": 1124,
      "Ġfam": 1125,
      "rada": 1126,
      "Ġpal": 1127,
      "Ġinst": 1128,
      "Ġmul": 1129,
      "Ġinter": 1130,
      "Ġmeio": 1131,
      "anÃ§": 1132,
      "eraÃ§Ã£o": 1133,
      "Ġtodas": 1134,
      "Ġcab": 1135,
      "ĠÃ¡re": 1136,
      "ontec": 1137,
      "Ġcu": 1138,
      "Ġhum": 1139,
      "enho": 1140,
      "ranc": 1141,
      "Ãºde": 1142,
      "Ġoutras": 1143,
      "Ġsendo": 1144,
      "Ã©r": 1145,
      "Ġfre": 1146,
      "Ã¡c": 1147,
      "acional": 1148,
      "ses": 1149,
      "Ġnosso": 1150,
      "lus": 1151,
      "Ġ6": 1152,
      "Ġpare": 1153,
      "ĠDeus": 1154,
      "Se": 1155,
      "edade": 1156,
      "Ã³g": 1157,
      "feira": 1158,
      "rios": 1159,
      "Ġparticip": 1160,
      "inas": 1161,
      "maÃ§Ãµes": 1162,
      "jeto": 1163,
      "Ġoutro": 1164,
      "||": 1165,
      "Ġol": 1166,
      "ĠÃºlt": 1167,
      "Ġdel": 1168,
      "Ġalguns": 1169,
      "Ã¡rias": 1170,
      "Ġatu": 1171,
      "Ġacontec": 1172,
      "und": 1173,
      "ast": 1174,
      "ĠÃ³": 1175,
      "ch": 1176,
      "Ġgover": 1177,
      "Ġnossa": 1178,
      "Ġcham": 1179,
      "eiras": 1180,
      "tal": 1181,
      "Ġsom": 1182,
      "Ġmenos": 1183,
      "Ġ200": 1184,
      "Ġfunc": 1185,
      "Ġfac": 1186,
      "ard": 1187,
      "As": 1188,
      "estÃ£o": 1189,
      "Ġexc": 1190,
      "port": 1191,
      "Ġhoje": 1192,
      "Ġapl": 1193,
      "ĠpolÃŃt": 1194,
      "OS": 1195,
      "ribu": 1196,
      "embro": 1197,
      "Ġintern": 1198,
      "Ġpu": 1199,
      "Ġexem": 1200,
      "Ġquer": 1201,
      "Ġprod": 1202,
      "Ã©t": 1203,
      "Ġinvest": 1204,
      "Ġatrav": 1205,
      "ĠalÃ©m": 1206,
      "Ġcidade": 1207,
      "Ġprofiss": 1208,
      "Ġimp": 1209,
      "Os": 1210,
      "Ġdurante": 1211,
      "Ãºm": 1212,
      "jo": 1213,
      "Ġmerc": 1214,
      "ĠCo": 1215,
      "ÃŃp": 1216,
      "entaÃ§Ã£o": 1217,
      "ranÃ§a": 1218,
      "alidade": 1219,
      "Ġnat": 1220,
      "Ã¢m": 1221,
      "Ġref": 1222,
      "duc": 1223,
      "ate": 1224,
      "Ġdisc": 1225,
      "Ã³r": 1226,
      "ordo": 1227,
      "iaÃ§Ã£o": 1228,
      "Ġdisse": 1229,
      "Ġconv": 1230,
      "Ġmost": 1231,
      "uso": 1232,
      "Ġvezes": 1233,
      "emas": 1234,
      "âĢľ": 1235,
      "Ġvia": 1236,
      "idera": 1237,
      "ĠmÃ©d": 1238,
      "Em": 1239,
      "Ġorgan": 1240,
      "ultura": 1241,
      "aro": 1242,
      "rut": 1243,
      "uc": 1244,
      "Ġprimeiro": 1245,
      "ÃŃveis": 1246,
      "NT": 1247,
      "Ġnem": 1248,
      "Ġpag": 1249,
      "Ġcomple": 1250,
      "Ġnovo": 1251,
      "Ġmomento": 1252,
      "elec": 1253,
      "Ġantes": 1254,
      "Para": 1255,
      "Ġexper": 1256,
      "via": 1257,
      "and": 1258,
      "Ġprocesso": 1259,
      "Est": 1260,
      "isas": 1261,
      "form": 1262,
      "Ġdent": 1263,
      "Ã³rio": 1264,
      "Ġpouco": 1265,
      "ass": 1266,
      "Ġestava": 1267,
      "ulos": 1268,
      "ÃŃst": 1269,
      "anha": 1270,
      "Ġtom": 1271,
      "Ġlon": 1272,
      "Ġdiv": 1273,
      "Ġinteres": 1274,
      "rias": 1275,
      "Ġext": 1276,
      "Ġativ": 1277,
      "Ġ10": 1278,
      "igos": 1279,
      "tamente": 1280,
      "Ġinic": 1281,
      "uÃ§Ã£o": 1282,
      "ive": 1283,
      "Ġauto": 1284,
      "Ġsuper": 1285,
      "Ġpens": 1286,
      "Ġdesenvolv": 1287,
      "Ġcri": 1288,
      "ĠDE": 1289,
      "Ġresult": 1290,
      "oria": 1291,
      "ĠatravÃ©s": 1292,
      "rou": 1293,
      "Ġ7": 1294,
      "ĠCar": 1295,
      "Ã¡tica": 1296,
      "Ġagora": 1297,
      "isc": 1298,
      "Ġofere": 1299,
      "iedade": 1300,
      "Ġbom": 1301,
      "oca": 1302,
      "ene": 1303,
      "enha": 1304,
      "ĠinformaÃ§Ãµes": 1305,
      "Ġobjet": 1306,
      "Ġfic": 1307,
      "ÃŃd": 1308,
      "ilo": 1309,
      "Ġgru": 1310,
      "Ã©cn": 1311,
      "Ãī": 1312,
      "Ġpelos": 1313,
      "ĠPaulo": 1314,
      "Ġtec": 1315,
      "Ġcal": 1316,
      "ologia": 1317,
      "Ġbrasil": 1318,
      "ĠprÃ³x": 1319,
      "nos": 1320,
      "log": 1321,
      "ĠAm": 1322,
      "Ġcorre": 1323,
      "rim": 1324,
      "Ġlim": 1325,
      "elho": 1326,
      "Ġexpl": 1327,
      "ok": 1328,
      "ĠtÃ£o": 1329,
      "ge": 1330,
      "inal": 1331,
      "ivers": 1332,
      "Ġapre": 1333,
      "ĠEle": 1334,
      "Ġtoda": 1335,
      "ÃŃlia": 1336,
      "ĠcomeÃ§": 1337,
      "Ġ8": 1338,
      "irm": 1339,
      "Ġrep": 1340,
      "Ã£os": 1341,
      "Ġcaus": 1342,
      "Ġcontinu": 1343,
      "tores": 1344,
      "esa": 1345,
      "ane": 1346,
      "ER": 1347,
      "Ġestar": 1348,
      "ĠpossÃŃvel": 1349,
      "Ġdesde": 1350,
      "Ġprimeira": 1351,
      "Ġfuncion": 1352,
      "ique": 1353,
      "Ġgu": 1354,
      "tou": 1355,
      "Ġmelho": 1356,
      "erra": 1357,
      "emente": 1358,
      "vis": 1359,
      "Ġimportante": 1360,
      "Ġsistema": 1361,
      "Ġdist": 1362,
      "Ġmud": 1363,
      "Ġduas": 1364,
      "Ãºs": 1365,
      "anos": 1366,
      "ua": 1367,
      "Ġexist": 1368,
      "No": 1369,
      "Ġthe": 1370,
      "ĠentÃ£o": 1371,
      "nÃ§as": 1372,
      "Ġvalor": 1373,
      "Ġsite": 1374,
      "Ġexemplo": 1375,
      "Ġcorpo": 1376,
      "ental": 1377,
      "Ġbas": 1378,
      "ex": 1379,
      "igu": 1380,
      "cio": 1381,
      "Ġdi": 1382,
      "âĢ¦": 1383,
      "Ġaum": 1384,
      "agens": 1385,
      "ĠEx": 1386,
      "Ġpequ": 1387,
      "Ã´m": 1388,
      "ĠnÃ³s": 1389,
      "Ġbus": 1390,
      "ĠtrÃªs": 1391,
      "ola": 1392,
      "Ġmant": 1393,
      "Ġsimpl": 1394,
      "Ġtal": 1395,
      "Ġprop": 1396,
      "rit": 1397,
      "car": 1398,
      "Ġinform": 1399,
      "Ġpartir": 1400,
      "Ġgara": 1401,
      "Ġand": 1402,
      "ĠapÃ³s": 1403,
      "Ġnome": 1404,
      "Ġacordo": 1405,
      "taÃ§Ã£o": 1406,
      "Ġed": 1407,
      "Ġcent": 1408,
      "iste": 1409,
      "Ġrespon": 1410,
      "cional": 1411,
      "Ġto": 1412,
      "Ġfinal": 1413,
      "ĠlÃ¡": 1414,
      "inhas": 1415,
      "Por": 1416,
      "Ġsof": 1417,
      "aixo": 1418,
      "Ġuso": 1419,
      "De": 1420,
      "Ġalgumas": 1421,
      "Ġnada": 1422,
      "Ġdesta": 1423,
      "enÃ§a": 1424,
      "Ġmercado": 1425,
      "AS": 1426,
      "Ġ9": 1427,
      "ĠAr": 1428,
      "Ġtipo": 1429,
      "ĠhistÃ³ria": 1430,
      "Ġsitu": 1431,
      "Ġacab": 1432,
      "Ġpop": 1433,
      "ure": 1434,
      "Ġleg": 1435,
      "ulaÃ§Ã£o": 1436,
      "odo": 1437,
      "Ġate": 1438,
      "ju": 1439,
      "Ġdar": 1440,
      "Ġecon": 1441,
      "Ġ0": 1442,
      "ĠtÃªm": 1443,
      "ĠCh": 1444,
      "Ã¡veis": 1445,
      "ide": 1446,
      "Ġprov": 1447,
      "\",": 1448,
      "ric": 1449,
      "Ġdentro": 1450,
      "Ġpessoa": 1451,
      "ante": 1452,
      "Ġcara": 1453,
      "Ġpubl": 1454,
      "acion": 1455,
      "dic": 1456,
      "Ġprodutos": 1457,
      "Ãĥ": 1458,
      "quanto": 1459,
      "Ġor": 1460,
      "ise": 1461,
      "Ġmot": 1462,
      "Ġfer": 1463,
      "Ġrest": 1464,
      "tes": 1465,
      "Ġrepres": 1466,
      "Ġlado": 1467,
      "des": 1468,
      "Ġbase": 1469,
      "resc": 1470,
      "has": 1471,
      "Ã©rio": 1472,
      "Ġpesqu": 1473,
      "Ġide": 1474,
      "pera": 1475,
      "issÃ£o": 1476,
      "iado": 1477,
      "rei": 1478,
      "Ġconstru": 1479,
      "ava": 1480,
      "Ġdados": 1481,
      "rito": 1482,
      "Ġtinha": 1483,
      "Ġpossu": 1484,
      "Ġfim": 1485,
      "unca": 1486,
      "Ġmuitas": 1487,
      "ifica": 1488,
      "omp": 1489,
      "Ġespa": 1490,
      "Ġret": 1491,
      "Ġcoloc": 1492,
      "ĠtÃ©cn": 1493,
      "Ġfica": 1494,
      "OR": 1495,
      "Ġsegundo": 1496,
      "Ġlugar": 1497,
      "af": 1498,
      "Ġautor": 1499,
      "rÃ¡": 1500,
      "Ġsimples": 1501,
      "Ġnova": 1502,
      "Ġajud": 1503,
      "feito": 1504,
      "Ġlo": 1505,
      "ime": 1506,
      "Ġconte": 1507,
      "ret": 1508,
      "Ġfund": 1509,
      "grama": 1510,
      "Ġprojeto": 1511,
      "ogo": 1512,
      "Ġdisso": 1513,
      "atro": 1514,
      "ilhÃµes": 1515,
      "ĠsaÃºde": 1516,
      "ĠDes": 1517,
      "ons": 1518,
      "Ġempre": 1519,
      "Ġqualidade": 1520,
      "Ġquanto": 1521,
      "Ġente": 1522,
      "osa": 1523,
      "ÃŃde": 1524,
      "Ġapare": 1525,
      "201": 1526,
      "Ġmuitos": 1527,
      "Ġdispon": 1528,
      "ĠnÃºm": 1529,
      "Ġlocal": 1530,
      "los": 1531,
      "ĠrelaÃ§Ã£o": 1532,
      "Ġsex": 1533,
      "dores": 1534,
      "Ġba": 1535,
      "Ġcontro": 1536,
      "leg": 1537,
      "Ġpassa": 1538,
      "ĠÃ¡rea": 1539,
      "Ġmo": 1540,
      "Ġfut": 1541,
      "Ġcoisas": 1542,
      "atos": 1543,
      "Ġespera": 1544,
      "gue": 1545,
      "minist": 1546,
      "ĠÃ¡gua": 1547,
      "Ġempresas": 1548,
      "IS": 1549,
      "icamente": 1550,
      "ÃŃf": 1551,
      "Ġdese": 1552,
      "dad": 1553,
      "ÃĥO": 1554,
      "AR": 1555,
      "Ġdeste": 1556,
      "ĠNa": 1557,
      "ris": 1558,
      "duz": 1559,
      "tiva": 1560,
      "ĠmÃ¡": 1561,
      "Ġmet": 1562,
      "Ġoutra": 1563,
      "Ġsocial": 1564,
      "Ã³d": 1565,
      "Ãĩ": 1566,
      "uma": 1567,
      "Es": 1568,
      "ĠAp": 1569,
      "ba": 1570,
      "ĠAss": 1571,
      "inhos": 1572,
      "Ġficar": 1573,
      "Ġru": 1574,
      "Ġsaber": 1575,
      "ĠEstado": 1576,
      "ibilidade": 1577,
      "ĠserviÃ§os": 1578,
      "rom": 1579,
      "Ġ15": 1580,
      "ww": 1581,
      "ĠÃºn": 1582,
      "posta": 1583,
      "rir": 1584,
      "zo": 1585,
      "soc": 1586,
      "iga": 1587,
      "NÃ£o": 1588,
      "ĠInt": 1589,
      "Ġamor": 1590,
      "Ġcan": 1591,
      "Ġtanto": 1592,
      "Ġdever": 1593,
      "ĠEl": 1594,
      "Ãªn": 1595,
      "uda": 1596,
      "Ġconsidera": 1597,
      "IA": 1598,
      "Ġmal": 1599,
      "Ġgoverno": 1600,
      "Ġcomb": 1601,
      "Ġtrat": 1602,
      "ona": 1603,
      "iores": 1604,
      "Ġestud": 1605,
      "Ġcoisa": 1606,
      "ingu": 1607,
      "ÃŃcia": 1608,
      "Ġgarant": 1609,
      "âĢĻ": 1610,
      "Ġtot": 1611,
      "Ġsuc": 1612,
      "ĠTra": 1613,
      "Ġdep": 1614,
      "osto": 1615,
      "heres": 1616,
      "Ġsign": 1617,
      "Ġprote": 1618,
      "Ġtre": 1619,
      "ĠmÃºs": 1620,
      "br": 1621,
      "isco": 1622,
      "Ġcin": 1623,
      "ĠEnt": 1624,
      "Ġalgo": 1625,
      "ĠSant": 1626,
      "amp": 1627,
      "ducaÃ§Ã£o": 1628,
      "ural": 1629,
      "Ġer": 1630,
      "ursos": 1631,
      "ĠRio": 1632,
      "ndes": 1633,
      "Ġconsum": 1634,
      "Ġmesma": 1635,
      "ĠpÃºblico": 1636,
      "ativa": 1637,
      "Ġnunca": 1638,
      "ores": 1639,
      "Ġnossos": 1640,
      "Ġdoc": 1641,
      "Ġpac": 1642,
      "Al": 1643,
      "Ġperson": 1644,
      "ĠLe": 1645,
      "urso": 1646,
      "ĠX": 1647,
      "inar": 1648,
      "!!": 1649,
      "Ġlib": 1650,
      "Ġinclu": 1651,
      "IC": 1652,
      "AD": 1653,
      "jam": 1654,
      "10": 1655,
      "Ġgente": 1656,
      "ulg": 1657,
      "Ġgrupo": 1658,
      "oi": 1659,
      "Ġdeter": 1660,
      "Ġsido": 1661,
      "ĠIs": 1662,
      "Ã¡g": 1663,
      "ederal": 1664,
      "Ġneste": 1665,
      "Ġmov": 1666,
      "erto": 1667,
      "lam": 1668,
      "abora": 1669,
      "Ġpresidente": 1670,
      "Ġil": 1671,
      "izar": 1672,
      "ient": 1673,
      "Ã©g": 1674,
      "ĠJo": 1675,
      "cos": 1676,
      "Ġpromo": 1677,
      "Ġtecn": 1678,
      "Ġsemana": 1679,
      "ng": 1680,
      "Ġprecisa": 1681,
      "Ġpalav": 1682,
      "Ġens": 1683,
      "Ġbar": 1684,
      "cas": 1685,
      "Ġorig": 1686,
      "Ġpap": 1687,
      "Ġproduto": 1688,
      "Ġnot": 1689,
      "osta": 1690,
      "anho": 1691,
      "Ġvo": 1692,
      "ĠComo": 1693,
      "onte": 1694,
      "op": 1695,
      "Ġ18": 1696,
      "Ġident": 1697,
      "Ġprog": 1698,
      "ĠAc": 1699,
      "Ġmun": 1700,
      "mas": 1701,
      "Ġson": 1702,
      "Ġboa": 1703,
      "Ġcust": 1704,
      "dor": 1705,
      "onhec": 1706,
      "Ġdizer": 1707,
      "encial": 1708,
      "Ġalun": 1709,
      "Ġacomp": 1710,
      "Ġhomem": 1711,
      "erca": 1712,
      "Ġon": 1713,
      "ĠPre": 1714,
      "ĠEu": 1715,
      "ĠseguranÃ§a": 1716,
      "Ġbr": 1717,
      "eles": 1718,
      "Ġ12": 1719,
      "ificaÃ§Ã£o": 1720,
      "Ġmater": 1721,
      "Ġtex": 1722,
      "ron": 1723,
      "tanto": 1724,
      "essa": 1725,
      "IN": 1726,
      "ĠMa": 1727,
      "Ġdesenvolvimento": 1728,
      "icado": 1729,
      "ĠSu": 1730,
      "Ġnenh": 1731,
      "Ġprocura": 1732,
      "Ġquais": 1733,
      "alizaÃ§Ã£o": 1734,
      "ĠfamÃŃlia": 1735,
      "inheiro": 1736,
      "cion": 1737,
      "ĠespaÃ§o": 1738,
      "ĠnÃºmero": 1739,
      "Ġgeral": 1740,
      "ĠZ": 1741,
      "Ġenquanto": 1742,
      "Ġdiferentes": 1743,
      "Ġtraz": 1744,
      "eno": 1745,
      "ĠperÃŃ": 1746,
      "Ġdireito": 1747,
      "ĠUm": 1748,
      "Ġdefin": 1749,
      "Ġemb": 1750,
      "eric": 1751,
      "elos": 1752,
      "Ġestab": 1753,
      "Ġing": 1754,
      "Ġhoras": 1755,
      "Ġnuma": 1756,
      "aixa": 1757,
      "Ġmodo": 1758,
      "Ġpasso": 1759,
      "Ġgrandes": 1760,
      "Ġrelacion": 1761,
      "ĠCl": 1762,
      "Ġverdade": 1763,
      "Ġlivro": 1764,
      "anÃ§a": 1765,
      "Ġtro": 1766,
      "Ġapo": 1767,
      "ĠcrianÃ§as": 1768,
      "inte": 1769,
      "Ġfez": 1770,
      "Na": 1771,
      "Ġcultura": 1772,
      "ÃŃm": 1773,
      "olÃ³g": 1774,
      "Ġprev": 1775,
      "iol": 1776,
      "Ġfinanc": 1777,
      "ĠGu": 1778,
      "ĠlanÃ§": 1779,
      "Ġanim": 1780,
      "ort": 1781,
      "Ġjogo": 1782,
      "ĠCont": 1783,
      "Ġhora": 1784,
      "hes": 1785,
      "iqu": 1786,
      "Ġapresent": 1787,
      "Ġquase": 1788,
      "AL": 1789,
      "Ã¢n": 1790,
      "Ġdecis": 1791,
      "Ġfeito": 1792,
      "ice": 1793,
      "erta": 1794,
      "Ġquar": 1795,
      "avam": 1796,
      "bo": 1797,
      "lex": 1798,
      "gens": 1799,
      "Ġpelas": 1800,
      "Ġproblemas": 1801,
      "Ġcir": 1802,
      "Ġrespe": 1803,
      "Ã¡p": 1804,
      "Ġ,": 1805,
      "ativo": 1806,
      "Ġnesta": 1807,
      "Ġperd": 1808,
      "ĠregiÃ£o": 1809,
      "Ġfora": 1810,
      "ert": 1811,
      "iram": 1812,
      "Ġk": 1813,
      "Ġjust": 1814,
      "ĠmilhÃµes": 1815,
      "Como": 1816,
      "ame": 1817,
      "ensÃ£o": 1818,
      "Ġmulheres": 1819,
      "Ġlig": 1820,
      "eliz": 1821,
      "bra": 1822,
      "ĠLu": 1823,
      "Ġjov": 1824,
      "Ġtrabalh": 1825,
      "ĠserviÃ§o": 1826,
      "ĠCO": 1827,
      "ulas": 1828,
      "ĠAd": 1829,
      "ĠproduÃ§Ã£o": 1830,
      "Ġvem": 1831,
      "Ġ30": 1832,
      "Ġcole": 1833,
      "Ġet": 1834,
      "Ġnorm": 1835,
      "inos": 1836,
      "icial": 1837,
      "Ġponto": 1838,
      "Ġusar": 1839,
      "elas": 1840,
      "adora": 1841,
      "aneiro": 1842,
      "Ġserv": 1843,
      "Ġcat": 1844,
      "\".": 1845,
      "Ġbene": 1846,
      "ÃŃcios": 1847,
      "Ġmaneira": 1848,
      "Ġaval": 1849,
      "ĠsÃ©": 1850,
      "19": 1851,
      "duÃ§Ã£o": 1852,
      "Ġinstitu": 1853,
      "ĠserÃ£o": 1854,
      "Ġjorn": 1855,
      "rie": 1856,
      "Ġef": 1857,
      "Ġfun": 1858,
      "ĠvÃŃde": 1859,
      "ĠnegÃ³": 1860,
      "Ġobjetivo": 1861,
      "gunt": 1862,
      "Ġhab": 1863,
      "ang": 1864,
      "Ġconver": 1865,
      "raÃ§Ãµes": 1866,
      "ĠSa": 1867,
      "Ġprograma": 1868,
      "las": 1869,
      "Ġproblema": 1870,
      "Ġbol": 1871,
      "erem": 1872,
      "Ã£e": 1873,
      "Ġseria": 1874,
      "Ġenerg": 1875,
      "Ġtemos": 1876,
      "ĠSegu": 1877,
      "esar": 1878,
      "ivamente": 1879,
      "Ġvolta": 1880,
      "Ġcapac": 1881,
      "Ġfato": 1882,
      "ĠY": 1883,
      "ĠvÃ¡rios": 1884,
      "Ġcel": 1885,
      "adr": 1886,
      "Ġdevem": 1887,
      "ĠAt": 1888,
      "Ġlhe": 1889,
      "rutura": 1890,
      "Ġsegunda": 1891,
      "Ġpermit": 1892,
      "Ġtur": 1893,
      "ect": 1894,
      "ĠVocÃª": 1895,
      "Ġregist": 1896,
      "vor": 1897,
      "portun": 1898,
      "posiÃ§Ã£o": 1899,
      "ĠPol": 1900,
      "line": 1901,
      "Ġsec": 1902,
      "Ġsi": 1903,
      "Ġmim": 1904,
      "Ġdinheiro": 1905,
      "iÃ§a": 1906,
      "ilhos": 1907,
      "ĠMin": 1908,
      "Ġresol": 1909,
      "Ġacesso": 1910,
      "itura": 1911,
      "osp": 1912,
      "ecer": 1913,
      "graf": 1914,
      "Ġtenha": 1915,
      "EN": 1916,
      "Ġlemb": 1917,
      "iados": 1918,
      "ece": 1919,
      "esc": 1920,
      "ĠperÃŃodo": 1921,
      "Ġche": 1922,
      "ĠCons": 1923,
      "Ġgost": 1924,
      "tt": 1925,
      "ites": 1926,
      "cter": 1927,
      "Ġequipe": 1928,
      "ĠdÃ¡": 1929,
      "qui": 1930,
      "RO": 1931,
      "orr": 1932,
      "porte": 1933,
      "Ġpen": 1934,
      "Ġvir": 1935,
      "Ġgera": 1936,
      "uras": 1937,
      "Ġmeses": 1938,
      "Ġconfor": 1939,
      "Ġviv": 1940,
      "dio": 1941,
      "ndimento": 1942,
      "ificar": 1943,
      "ers": 1944,
      "ilha": 1945,
      "gre": 1946,
      "rando": 1947,
      "itaÃ§Ã£o": 1948,
      "Ġmora": 1949,
      "ila": 1950,
      "Ġobs": 1951,
      "Ġteve": 1952,
      "icion": 1953,
      "ĠprÃ³prio": 1954,
      "Ġdocum": 1955,
      "Ã¡b": 1956,
      "Ġintegra": 1957,
      "Ġdig": 1958,
      "forma": 1959,
      "gas": 1960,
      "one": 1961,
      "Ġatividades": 1962,
      "Ġcompet": 1963,
      "Ġsabe": 1964,
      "Ġenf": 1965,
      "enda": 1966,
      "Ġobrig": 1967,
      "ĠinÃŃcio": 1968,
      "Ġsociais": 1969,
      "ĠGra": 1970,
      "Ġdetermin": 1971,
      "Ġusu": 1972,
      "Ġquant": 1973,
      "ĠCas": 1974,
      "omia": 1975,
      "Ġexec": 1976,
      "Ġoportun": 1977,
      "ividade": 1978,
      "Ġfrente": 1979,
      "ĠfÃŃs": 1980,
      "Ġsociedade": 1981,
      "Ġmulher": 1982,
      "ĠCent": 1983,
      "Ġnoite": 1984,
      "Ġtar": 1985,
      "Ġambiente": 1986,
      "Ġbat": 1987,
      "Um": 1988,
      "Ġpriv": 1989,
      "ĠNacional": 1990,
      "Ġado": 1991,
      "ĠnecessÃ¡rio": 1992,
      "Ġcob": 1993,
      "ĠsituaÃ§Ã£o": 1994,
      "Ġfra": 1995,
      "Ġacred": 1996,
      "Ġdeixar": 1997,
      "ump": 1998,
      "Ġfalar": 1999,
      "ĠconteÃº": 2000,
      "ĠvÃ£o": 2001,
      "ĠexperiÃªncia": 2002,
      "icÃŃp": 2003,
      "imas": 2004,
      "Ġproduz": 2005,
      "Ġestabelec": 2006,
      "Ã©l": 2007,
      "ĠAlÃ©m": 2008,
      "ĠaÃ§Ã£o": 2009,
      "ĠUma": 2010,
      "Ġpergunt": 2011,
      "ies": 2012,
      "RE": 2013,
      "sab": 2014,
      "ĠprÃ³pria": 2015,
      "Ġocorre": 2016,
      "Ġclientes": 2017,
      "Ġrespons": 2018,
      "Ġmelhores": 2019,
      "Ġfavor": 2020,
      "reve": 2021,
      "Ġdez": 2022,
      "Ã³l": 2023,
      "Ġdescob": 2024,
      "Ġalguma": 2025,
      "ance": 2026,
      "Ġnovos": 2027,
      "pt": 2028,
      "ax": 2029,
      "Ġbeb": 2030,
      "cia": 2031,
      "Ġrecursos": 2032,
      "inaÃ§Ã£o": 2033,
      "ĠpolÃŃtica": 2034,
      "tugu": 2035,
      "Ġopera": 2036,
      "Ġadminist": 2037,
      "idores": 2038,
      "cios": 2039,
      "Ġlongo": 2040,
      "Ġfalta": 2041,
      "onst": 2042,
      "Ġdesse": 2043,
      "Ġfilme": 2044,
      "ĠpoderÃ¡": 2045,
      "Ġmaioria": 2046,
      "Ġfoto": 2047,
      "ratÃ©g": 2048,
      "Ġafirm": 2049,
      "Ġprincipais": 2050,
      "Ġprepara": 2051,
      "Ġbastante": 2052,
      "vio": 2053,
      "Ġfiz": 2054,
      "Ġprocess": 2055,
      "uta": 2056,
      "ĠSer": 2057,
      "Ġreun": 2058,
      "Ġimporta": 2059,
      "AN": 2060,
      "mes": 2061,
      "Ã¡cil": 2062,
      "entemente": 2063,
      "ĠAn": 2064,
      "Ġdessa": 2065,
      "Ġpassado": 2066,
      "ĠvÃ¡rias": 2067,
      "Ġevento": 2068,
      "col": 2069,
      "Ġarqu": 2070,
      "Ġestado": 2071,
      "Ġpapel": 2072,
      "eito": 2073,
      "Ġinstal": 2074,
      "Ġimpl": 2075,
      "ĠaÃ§Ãµes": 2076,
      "Ġindiv": 2077,
      "Ġencontrar": 2078,
      "ĠCam": 2079,
      "ĠBar": 2080,
      "ĠFederal": 2081,
      "pira": 2082,
      "Ġpreciso": 2083,
      "Ġprest": 2084,
      "ferÃªncia": 2085,
      "Ġesses": 2086,
      "Ġcerca": 2087,
      "Ġvi": 2088,
      "ay": 2089,
      "ĠPar": 2090,
      "ins": 2091,
      "asse": 2092,
      "ĠMu": 2093,
      "rica": 2094,
      "vida": 2095,
      "//": 2096,
      "Ġtor": 2097,
      "Ġz": 2098,
      "Ap": 2099,
      "IT": 2100,
      "30": 2101,
      "Ġnovas": 2102,
      "Ġrelat": 2103,
      "Ġtenho": 2104,
      "Ġprofissional": 2105,
      "Ġelas": 2106,
      "Ġpresente": 2107,
      "izado": 2108,
      "Ġcasos": 2109,
      "Ġexerc": 2110,
      "Ġcontribu": 2111,
      "ID": 2112,
      "istÃ©rio": 2113,
      "Ġmor": 2114,
      "Ġquest": 2115,
      "Ġcresc": 2116,
      "reg": 2117,
      "Ġencontra": 2118,
      "Ġplane": 2119,
      "Ġbo": 2120,
      "Ġhavia": 2121,
      "Ġforn": 2122,
      "Ġprofissionais": 2123,
      "QU": 2124,
      "ill": 2125,
      "Ġpontos": 2126,
      "Mas": 2127,
      "ind": 2128,
      "Ġaplic": 2129,
      "Ġajuda": 2130,
      "Ġ11": 2131,
      "Ġajudar": 2132,
      "Ġcaracter": 2133,
      "ĠSen": 2134,
      "Ġgl": 2135,
      "Ġmarca": 2136,
      "iÃµes": 2137,
      "Ġso": 2138,
      "Ġreconhec": 2139,
      "Ġcurso": 2140,
      "pend": 2141,
      "unt": 2142,
      "Ġsucesso": 2143,
      "Ġdele": 2144,
      "Ġquatro": 2145,
      "vista": 2146,
      "Ġsur": 2147,
      "ceu": 2148,
      "inta": 2149,
      "ĠfÃ¡cil": 2150,
      "anhÃ£": 2151,
      "Ġfos": 2152,
      "Ġrece": 2153,
      "esus": 2154,
      "Ġvar": 2155,
      "itor": 2156,
      "ttp": 2157,
      "zes": 2158,
      "Ġperceb": 2159,
      "eix": 2160,
      "Ġ16": 2161,
      "Ġprogram": 2162,
      "ĠpÃ¡g": 2163,
      "Ġesqu": 2164,
      "Ġprincipal": 2165,
      "Ġexig": 2166,
      "Ġsou": 2167,
      "Ġentanto": 2168,
      "Ġsus": 2169,
      "ĠDire": 2170,
      "Ġprojet": 2171,
      "Ġ14": 2172,
      "Ġagra": 2173,
      "Ġmuita": 2174,
      "://": 2175,
      "ach": 2176,
      "ĠCol": 2177,
      "ĠmÃªs": 2178,
      "Ġcriar": 2179,
      "Ġpot": 2180,
      "Ġessas": 2181,
      "Ġtele": 2182,
      "ĠJos": 2183,
      "ĠâĢĶ": 2184,
      "Ġresultado": 2185,
      "Âª": 2186,
      "iada": 2187,
      "reira": 2188,
      "Ġcabe": 2189,
      "Ã³p": 2190,
      "Ġcomerc": 2191,
      "Ġsens": 2192,
      "Ġdisp": 2193,
      "Ġreal": 2194,
      "iano": 2195,
      "ĠQuando": 2196,
      "Ġprat": 2197,
      "EM": 2198,
      "Ġder": 2199,
      "ĠcondiÃ§Ãµes": 2200,
      "ENT": 2201,
      "Ġresultados": 2202,
      "Ġalunos": 2203,
      "eros": 2204,
      "Ġimport": 2205,
      "Ġsentido": 2206,
      "ink": 2207,
      "Ġacompanh": 2208,
      "anas": 2209,
      "ĠpaÃŃses": 2210,
      "uais": 2211,
      "Ġlei": 2212,
      "ĠdÃº": 2213,
      "Ġgrav": 2214,
      "Ġdific": 2215,
      "Ġpassar": 2216,
      "Pro": 2217,
      "ĠIsso": 2218,
      "iversidade": 2219,
      "Ġreceber": 2220,
      "Ġmanter": 2221,
      "entou": 2222,
      "ĠnÃŃvel": 2223,
      "Ġfec": 2224,
      "Ġcaminho": 2225,
      "ĠrÃ¡p": 2226,
      "Ġjunt": 2227,
      "ws": 2228,
      "Ġpossui": 2229,
      "ĠMun": 2230,
      "Ġtratamento": 2231,
      "Ġrede": 2232,
      "Ġconhecimento": 2233,
      "Ġconju": 2234,
      "Ġassist": 2235,
      "Ġdim": 2236,
      "antas": 2237,
      "gal": 2238,
      "Ġverdad": 2239,
      "Ġprincipalmente": 2240,
      "ĠÃ©p": 2241,
      "ndas": 2242,
      "Ġcost": 2243,
      "tern": 2244,
      "Ġade": 2245,
      "Ġrela": 2246,
      "ÃŃdo": 2247,
      "Ġanal": 2248,
      "Ġsen": 2249,
      "ĠatenÃ§Ã£o": 2250,
      "Ġace": 2251,
      "Ġabaixo": 2252,
      "Ġcausa": 2253,
      "ĠAnt": 2254,
      "ĠEn": 2255,
      "ĠestratÃ©g": 2256,
      "Ġparc": 2257,
      "ress": 2258,
      "ĠquestÃ£o": 2259,
      "rÃ¡f": 2260,
      "Ġtiv": 2261,
      "Ã³rios": 2262,
      "ĠvocÃªs": 2263,
      "Ġexiste": 2264,
      "Ġminutos": 2265,
      "Ġcart": 2266,
      "Ġpais": 2267,
      "Ġblog": 2268,
      "Ã³n": 2269,
      "vam": 2270,
      "Ġcand": 2271,
      "ĠmÃ£e": 2272,
      "Ġ13": 2273,
      "Ġmus": 2274,
      "ÃĩÃĥO": 2275,
      "Ġ17": 2276,
      "Ġamigos": 2277,
      "Eu": 2278,
      "ke": 2279,
      "Ġalim": 2280,
      "Ġdetal": 2281,
      "Ġexpres": 2282,
      "ulares": 2283,
      "ĠsÃ©rie": 2284,
      "ĠprÃ³ximo": 2285,
      "Ġcontato": 2286,
      "ĠalguÃ©m": 2287,
      "Ġenergia": 2288,
      "ÃŃda": 2289,
      "ĠJesus": 2290,
      "Ġord": 2291,
      "ulho": 2292,
      "ST": 2293,
      "ques": 2294,
      "Ġur": 2295,
      "Ġdemais": 2296,
      "icidade": 2297,
      "Ġsomente": 2298,
      "Ġpreoc": 2299,
      "Ġbusca": 2300,
      "Ġsan": 2301,
      "ton": 2302,
      "ĠAg": 2303,
      "Ġacess": 2304,
      "Ġnatural": 2305,
      "ĠterÃ¡": 2306,
      "arem": 2307,
      "Ġfundam": 2308,
      "000": 2309,
      "ĠprÃ¡tica": 2310,
      "Ġescola": 2311,
      "odos": 2312,
      "Ġmarc": 2313,
      "icipal": 2314,
      "ĠReg": 2315,
      "ell": 2316,
      "aca": 2317,
      "AM": 2318,
      "Ġmont": 2319,
      "Ġtest": 2320,
      "Ġalte": 2321,
      "Ġmodelo": 2322,
      "vez": 2323,
      "Ġganh": 2324,
      "ĠEsp": 2325,
      "itam": 2326,
      "Ġterc": 2327,
      "ĠVal": 2328,
      "ĠmÃºsica": 2329,
      "ĠpopulaÃ§Ã£o": 2330,
      "Ġhomens": 2331,
      "idÃªncia": 2332,
      "Ġ[": 2333,
      "essor": 2334,
      "Ġori": 2335,
      "Ġprova": 2336,
      "Ġnossas": 2337,
      "Ġ.": 2338,
      "Ġapoio": 2339,
      "Ã£este": 2340,
      "âĢĵ": 2341,
      "icaÃ§Ãµes": 2342,
      "Ġobra": 2343,
      "ipl": 2344,
      "Ġartigo": 2345,
      "Ġrealmente": 2346,
      "Ġisto": 2347,
      "Ġlogo": 2348,
      "edor": 2349,
      "Ġpesquisa": 2350,
      "Ġ25": 2351,
      "Ġtarde": 2352,
      "Uma": 2353,
      "idar": 2354,
      "Ġsurg": 2355,
      "ĠÃ¡reas": 2356,
      "volve": 2357,
      "Ġrevel": 2358,
      "ĠOl": 2359,
      "Ġestou": 2360,
      "xim": 2361,
      "ĠÃģ": 2362,
      "ĠinformaÃ§Ã£o": 2363,
      "Ġalc": 2364,
      "ĠIntern": 2365,
      "jas": 2366,
      "Ġfazendo": 2367,
      "Ãģ": 2368,
      "II": 2369,
      "Ġgen": 2370,
      "ze": 2371,
      "elha": 2372,
      "rec": 2373,
      "oso": 2374,
      "Ġanter": 2375,
      "Ġfilho": 2376,
      "ificado": 2377,
      "Ġy": 2378,
      "Ġficou": 2379,
      "Ġtent": 2380,
      "anta": 2381,
      "IO": 2382,
      "Ġtexto": 2383,
      "pro": 2384,
      "Ġchegar": 2385,
      "ĠSal": 2386,
      "Ġemp": 2387,
      "Ġassoc": 2388,
      "ket": 2389,
      "Ġnacional": 2390,
      "ĠforÃ§a": 2391,
      "adeira": 2392,
      "ender": 2393,
      "Ġouv": 2394,
      "Ġalta": 2395,
      "ux": 2396,
      "Ġnecessidade": 2397,
      "tando": 2398,
      "EL": 2399,
      "ĠmunicÃŃp": 2400,
      "Ġdom": 2401,
      "emp": 2402,
      "Ġsai": 2403,
      "11": 2404,
      "ĠRes": 2405,
      "Ã¡tico": 2406,
      "Ġpropor": 2407,
      "Ġdeles": 2408,
      "atura": 2409,
      "Ġpat": 2410,
      "ĠPod": 2411,
      "ĠSoc": 2412,
      "edia": 2413,
      "Ġnesse": 2414,
      "Ġorganiz": 2415,
      "ĠcoraÃ§Ã£o": 2416,
      "Ġit": 2417,
      "Ġth": 2418,
      "Ġrecom": 2419,
      "Ġpreocup": 2420,
      "Ġpele": 2421,
      "Ġdiversos": 2422,
      "ume": 2423,
      "ĠÃ©poca": 2424,
      "Ġdireitos": 2425,
      "Ġigu": 2426,
      "ĠPl": 2427,
      "Ġmon": 2428,
      "Ġdiversas": 2429,
      "riÃ§Ã£o": 2430,
      "Ġx": 2431,
      "Ġtotal": 2432,
      "Ġestudo": 2433,
      "Ġden": 2434,
      "Ã¡ticas": 2435,
      "Ġeng": 2436,
      "inguÃ©m": 2437,
      "Ġlinha": 2438,
      "pÃ§Ã£o": 2439,
      "itado": 2440,
      "Ġmeus": 2441,
      "ian": 2442,
      "Ġ199": 2443,
      "Ġpodemos": 2444,
      "Ġata": 2445,
      "Ã³rias": 2446,
      "Ġcomum": 2447,
      "Ġcontrole": 2448,
      "Ġfacil": 2449,
      "Ġne": 2450,
      "ack": 2451,
      "ĠMaria": 2452,
      "maz": 2453,
      "ĠeducaÃ§Ã£o": 2454,
      "Ġsin": 2455,
      "Ġrespeito": 2456,
      "ĠEuro": 2457,
      "Ġcompre": 2458,
      "ĠEste": 2459,
      "Ġjornal": 2460,
      "ĠPr": 2461,
      "idor": 2462,
      "ĠSil": 2463,
      "ĠNe": 2464,
      "Ġviol": 2465,
      ".âĢĿ": 2466,
      "Ġmorte": 2467,
      "Ġcamp": 2468,
      "Ġcre": 2469,
      "feitos": 2470,
      "Ġrisco": 2471,
      "CO": 2472,
      "Ġclaro": 2473,
      "iana": 2474,
      "Con": 2475,
      "Ġ/": 2476,
      "Ġrespo": 2477,
      "Ġeram": 2478,
      "fa": 2479,
      "eias": 2480,
      "ĠconteÃºdo": 2481,
      "Ġparece": 2482,
      "Ġcerto": 2483,
      "Ġraz": 2484,
      "ĠgestÃ£o": 2485,
      "ĠRec": 2486,
      "Ġminist": 2487,
      "Ġoferece": 2488,
      "Ġjunto": 2489,
      "Ġcapital": 2490,
      "ĠdecisÃ£o": 2491,
      "Ġcirc": 2492,
      "Ġinclus": 2493,
      "Ġdiferente": 2494,
      "Ġperman": 2495,
      "anÃ§as": 2496,
      "our": 2497,
      "ook": 2498,
      "Ġdaqu": 2499,
      "ĠSem": 2500,
      "ÃŃtulo": 2501,
      "Ġtransform": 2502,
      "Ġimpres": 2503,
      "ĠvÃŃdeo": 2504,
      "Ġvou": 2505,
      "ÃŃsticas": 2506,
      "xo": 2507,
      "Ġess": 2508,
      "Ġestamos": 2509,
      "Ġreduz": 2510,
      "Ġcarro": 2511,
      "Ġcompra": 2512,
      "ĠJosÃ©": 2513,
      "Ġgol": 2514,
      "ĠmÃ£o": 2515,
      "Ġideia": 2516,
      "Ġ100": 2517,
      "Ġaprov": 2518,
      "Ġdecl": 2519,
      "Ġimagem": 2520,
      "Ġinicia": 2521,
      "Ġfazem": 2522,
      "ĠEstados": 2523,
      "ĠAnd": 2524,
      "Ġestre": 2525,
      "Ġps": 2526,
      "Ġprazo": 2527,
      "Ġconhecer": 2528,
      "ĠMo": 2529,
      "ĠporÃ©m": 2530,
      "Ġcliente": 2531,
      "Ġobserv": 2532,
      "Ġcinco": 2533,
      "ĠpreÃ§o": 2534,
      "Ġetc": 2535,
      "ĠSec": 2536,
      "VocÃª": 2537,
      "mail": 2538,
      "Ġcapacidade": 2539,
      "Ġdificul": 2540,
      "Ã¡st": 2541,
      "Ġinternet": 2542,
      "Ãºst": 2543,
      "Ġdeu": 2544,
      "iÃªncias": 2545,
      "rum": 2546,
      "Ġfotos": 2547,
      "12": 2548,
      "Ġ24": 2549,
      "irma": 2550,
      "Ġfeita": 2551,
      "Ġrealidade": 2552,
      "ĠformaÃ§Ã£o": 2553,
      "Ġpalavras": 2554,
      "ĠimportÃ¢ncia": 2555,
      "Ã¢mara": 2556,
      "ĠIm": 2557,
      "Ġvista": 2558,
      "Ġdecid": 2559,
      "ama": 2560,
      "Ġcump": 2561,
      "ĠÂ": 2562,
      "Ġquad": 2563,
      "ruz": 2564,
      "Ġmostra": 2565,
      "Ġestrutura": 2566,
      "Ġabs": 2567,
      "Ġdesaf": 2568,
      "Ġpoderia": 2569,
      "tugal": 2570,
      "ÃŃcil": 2571,
      "Ã¡lise": 2572,
      "Ġsejam": 2573,
      "Ġinde": 2574,
      "Ġdomin": 2575,
      "Ġconstitu": 2576,
      "ĠconstruÃ§Ã£o": 2577,
      "Ġresponsab": 2578,
      "ense": 2579,
      "org": 2580,
      "Quando": 2581,
      "Ent": 2582,
      "Ġpovo": 2583,
      "Ġmaterial": 2584,
      "Ġtecnologia": 2585,
      "Ġpessoal": 2586,
      "Ġbenef": 2587,
      "enos": 2588,
      "Ġmaiores": 2589,
      "Ġenvi": 2590,
      "ĠPer": 2591,
      "ureza": 2592,
      "isso": 2593,
      "Ġexclus": 2594,
      "Ġpai": 2595,
      "Ġirm": 2596,
      "ÃŃr": 2597,
      "Ġprofesso": 2598,
      "ipos": 2599,
      "ĠPed": 2600,
      "ĠJoÃ£o": 2601,
      "Ġfilhos": 2602,
      "Ġprojetos": 2603,
      "Ġating": 2604,
      "Ġacima": 2605,
      "leo": 2606,
      "ger": 2607,
      "Ġolhos": 2608,
      "Ġforte": 2609,
      "Ġvamos": 2610,
      "ĠEla": 2611,
      "par": 2612,
      "Ġaprove": 2613,
      "Ġlevar": 2614,
      "jos": 2615,
      "Ġpropri": 2616,
      "Ġrepresent": 2617,
      "ĠirÃ¡": 2618,
      "Ġseguir": 2619,
      "Ġcho": 2620,
      "ves": 2621,
      "remos": 2622,
      "Ġnenhum": 2623,
      "inado": 2624,
      "ivil": 2625,
      "Ġhor": 2626,
      "Ġrealizar": 2627,
      "Ġmensa": 2628,
      "tr": 2629,
      "Re": 2630,
      "Ġvont": 2631,
      "tec": 2632,
      "Ġcapaz": 2633,
      "uv": 2634,
      "Ġportugu": 2635,
      "ĠEsc": 2636,
      "unto": 2637,
      "Ġtema": 2638,
      "anco": 2639,
      "visÃ£o": 2640,
      "eios": 2641,
      "ĠdifÃŃcil": 2642,
      "tivas": 2643,
      "Ġbranc": 2644,
      "oje": 2645,
      "Ġtrabalhar": 2646,
      "Ġinvestig": 2647,
      "Ġcoment": 2648,
      "Ġcompanh": 2649,
      "itivo": 2650,
      "ĠJÃ¡": 2651,
      "Ġautom": 2652,
      "ĠÃºltima": 2653,
      "gos": 2654,
      "Ġserem": 2655,
      "ĠSul": 2656,
      "Segu": 2657,
      "Ġtendo": 2658,
      "ĠPal": 2659,
      "Ġdivulg": 2660,
      "Ġimpos": 2661,
      "ĠAo": 2662,
      "Ġpla": 2663,
      "Ġquis": 2664,
      "ĠpresenÃ§a": 2665,
      "Ġpost": 2666,
      "ĠveÃŃc": 2667,
      "ĠCor": 2668,
      "Ġaleg": 2669,
      "Ġadequ": 2670,
      "AT": 2671,
      "val": 2672,
      "Ġcampo": 2673,
      "Ġfuturo": 2674,
      "Ġferram": 2675,
      "Ġhosp": 2676,
      "ĠSaÃºde": 2677,
      "adamente": 2678,
      "ĠTem": 2679,
      "unho": 2680,
      "iou": 2681,
      "ĠNos": 2682,
      "Ġperf": 2683,
      "Ġali": 2684,
      "Ġproced": 2685,
      "ĠVer": 2686,
      "Ġatual": 2687,
      "ĠcrianÃ§a": 2688,
      "ĠeconÃ´m": 2689,
      "ĠÃºltimo": 2690,
      "In": 2691,
      "ĠFac": 2692,
      "mit": 2693,
      "Ġdispos": 2694,
      "tra": 2695,
      "Ġmanif": 2696,
      "IM": 2697,
      "Ġdeb": 2698,
      "ĠespecÃŃf": 2699,
      "Ġlista": 2700,
      "Ġ50": 2701,
      "ĠprÃ©": 2702,
      "200": 2703,
      "Ġcomprar": 2704,
      "ĠaÃŃ": 2705,
      "teza": 2706,
      "Ġgas": 2707,
      "Ġpermite": 2708,
      "ĠEd": 2709,
      "ĠAssim": 2710,
      "be": 2711,
      "let": 2712,
      "erais": 2713,
      "vidas": 2714,
      "itando": 2715,
      "Ġpagamento": 2716,
      "EC": 2717,
      "Ġenvolv": 2718,
      "ht": 2719,
      "ĠpÃºblica": 2720,
      "Ġaprend": 2721,
      "man": 2722,
      "Ġatividade": 2723,
      "ĠPÃºbl": 2724,
      "Ġvontade": 2725,
      "ato": 2726,
      "obre": 2727,
      "eria": 2728,
      "Ġsei": 2729,
      "Ġfoc": 2730,
      "Ġdevido": 2731,
      "ĠPortugal": 2732,
      "jar": 2733,
      "met": 2734,
      "Ġvalores": 2735,
      "Ġdata": 2736,
      "tro": 2737,
      "ĠfÃ©": 2738,
      "Ġconqu": 2739,
      "ĠopÃ§Ã£o": 2740,
      "ĠresponsÃ¡vel": 2741,
      "Ġrelig": 2742,
      "resso": 2743,
      "Ġaquele": 2744,
      "ĠJust": 2745,
      "Ġalto": 2746,
      "Ġfeliz": 2747,
      "Ġensino": 2748,
      "Ġfosse": 2749,
      "SP": 2750,
      "Ġvel": 2751,
      "Ġsaud": 2752,
      "Ġtax": 2753,
      "Ġterra": 2754,
      "ilidades": 2755,
      "ÃŃnio": 2756,
      "Ġliber": 2757,
      "eja": 2758,
      "Ġla": 2759,
      "ĠopÃ§Ãµes": 2760,
      "Ġimag": 2761,
      "rent": 2762,
      "ÃŃg": 2763,
      "ĠcabeÃ§a": 2764,
      "ĠâĢĺ": 2765,
      "ĠJaneiro": 2766,
      "Ġsust": 2767,
      "Ġluz": 2768,
      "ĠcriaÃ§Ã£o": 2769,
      "ĠBa": 2770,
      "Ġlit": 2771,
      "Ex": 2772,
      "Ġconsc": 2773,
      "isÃ£o": 2774,
      "Ġmult": 2775,
      "ĠNat": 2776,
      "ficiente": 2777,
      "ĠmanhÃ£": 2778,
      "Ġlivre": 2779,
      "Ġonline": 2780,
      "rap": 2781,
      "ÃŃdu": 2782,
      "Ġentrar": 2783,
      "Ġresta": 2784,
      "Ġexter": 2785,
      "ĠsÃ©c": 2786,
      "Ġnegoc": 2787,
      "Ġsac": 2788,
      "Ġefet": 2789,
      "Ġexcel": 2790,
      "les": 2791,
      "Ġtam": 2792,
      "ĠÃºnico": 2793,
      "aval": 2794,
      "Ġconseguir": 2795,
      "Ġ|": 2796,
      "50": 2797,
      "Ġbal": 2798,
      "Ġvag": 2799,
      "Ġvest": 2800,
      "ĠMinistÃ©rio": 2801,
      "Ġcompart": 2802,
      "Ġpossa": 2803,
      "eta": 2804,
      "ndeu": 2805,
      "orden": 2806,
      "ĠÃºnica": 2807,
      "Ġcha": 2808,
      "Ġinsc": 2809,
      "Ġplano": 2810,
      "Ġig": 2811,
      "Ġcient": 2812,
      "Ġtend": 2813,
      "ĠÃ³t": 2814,
      "ribun": 2815,
      "ĠGo": 2816,
      "Ġredes": 2817,
      "Ġsat": 2818,
      "ĠLei": 2819,
      "ĠcomunicaÃ§Ã£o": 2820,
      "Ġdela": 2821,
      "Ġcentro": 2822,
      "Ġestran": 2823,
      "iliar": 2824,
      "Ġaber": 2825,
      "ÃŃstica": 2826,
      "ival": 2827,
      "ĠThe": 2828,
      "loc": 2829,
      "fo": 2830,
      "Ġsignifica": 2831,
      "Ġestes": 2832,
      "ĠparticipaÃ§Ã£o": 2833,
      "rest": 2834,
      "sar": 2835,
      "ativas": 2836,
      "Ġdura": 2837,
      "ube": 2838,
      "Ġpensar": 2839,
      "IL": 2840,
      "Ġapresenta": 2841,
      "Ġmedida": 2842,
      "Ġmovimento": 2843,
      "ĠOut": 2844,
      "UA": 2845,
      "Ġdistribu": 2846,
      "Ġcrescimento": 2847,
      "arm": 2848,
      "Ġelem": 2849,
      "Ġfrequ": 2850,
      "ĠFo": 2851,
      "Ġnatureza": 2852,
      "Ġsetor": 2853,
      "ĠmÃ¡x": 2854,
      "Ġmol": 2855,
      "ilho": 2856,
      "Ġros": 2857,
      "Ġmist": 2858,
      "Ġidade": 2859,
      "Ġaqueles": 2860,
      "ĠcomeÃ§ar": 2861,
      "ĠÃŃ": 2862,
      "riz": 2863,
      "Ġdor": 2864,
      "Ġbrasileiro": 2865,
      "ly": 2866,
      "ĠDO": 2867,
      "Ġexecut": 2868,
      "Ġmag": 2869,
      "alizado": 2870,
      "Ġampl": 2871,
      "Ġpassou": 2872,
      "ĠorganizaÃ§Ã£o": 2873,
      "ĠÃºltimos": 2874,
      "Ġcompl": 2875,
      "Ġoportunidade": 2876,
      "risto": 2877,
      "Ġestim": 2878,
      "reiro": 2879,
      "bol": 2880,
      "Ġocup": 2881,
      "rever": 2882,
      "Ã£es": 2883,
      "ndendo": 2884,
      "Ġsair": 2885,
      "IV": 2886,
      "ĠninguÃ©m": 2887,
      "sem": 2888,
      "Ġimportantes": 2889,
      "ÃŃrito": 2890,
      "Ã¼": 2891,
      "Ġcolocar": 2892,
      "iante": 2893,
      "isl": 2894,
      "Ġcerteza": 2895,
      "ĠmÃŃn": 2896,
      "Ġaumento": 2897,
      "Ġviagem": 2898,
      "ĠcomeÃ§ou": 2899,
      "Ġbon": 2900,
      "Ġinflu": 2901,
      "alizar": 2902,
      "ensa": 2903,
      "Ġevitar": 2904,
      "Este": 2905,
      "orda": 2906,
      "idado": 2907,
      "Ã©ria": 2908,
      "ĠmÃ£os": 2909,
      "Ġexp": 2910,
      "Ġtran": 2911,
      "Ġjovens": 2912,
      "Ġimagens": 2913,
      "Ã©is": 2914,
      "idados": 2915,
      "Ã³digo": 2916,
      "ebol": 2917,
      "ĠUniversidade": 2918,
      "Ġcomprom": 2919,
      "mento": 2920,
      "uz": 2921,
      "Ġcomunidade": 2922,
      "Ġusando": 2923,
      "ades": 2924,
      "Ġentender": 2925,
      "Ġfl": 2926,
      "Ġpadr": 2927,
      "Ġassunto": 2928,
      "iel": 2929,
      "ĠfunÃ§Ã£o": 2930,
      "Ġfol": 2931,
      "Ġrom": 2932,
      "Ġ21": 2933,
      "ome": 2934,
      "gn": 2935,
      "Ġestilo": 2936,
      "Ġacontece": 2937,
      "istÃªncia": 2938,
      "Ġatendimento": 2939,
      "Ġjur": 2940,
      "ĠEntÃ£o": 2941,
      "Ġelev": 2942,
      "Ġsho": 2943,
      "volver": 2944,
      "ĠComp": 2945,
      "oro": 2946,
      "idamente": 2947,
      "Ġagrad": 2948,
      "mar": 2949,
      "ĠcÃ©": 2950,
      "Ġjogos": 2951,
      "voluÃ§Ã£o": 2952,
      "Ġgr": 2953,
      "ĠDo": 2954,
      "Ġprete": 2955,
      "Ġcontr": 2956,
      "ĠFranc": 2957,
      "Ġdemonst": 2958,
      "ubro": 2959,
      "Ġformas": 2960,
      "Ġfase": 2961,
      "ĠnegÃ³cio": 2962,
      "postas": 2963,
      "abilidade": 2964,
      "Ġgratu": 2965,
      "ik": 2966,
      "tual": 2967,
      "Ġquantidade": 2968,
      "estre": 2969,
      "Ġtrabalha": 2970,
      "Ġpossibilidade": 2971,
      "Ġexistem": 2972,
      "Ġobras": 2973,
      "su": 2974,
      "rados": 2975,
      "iÃ¡rio": 2976,
      "Ġindic": 2977,
      "sal": 2978,
      "Ġdestac": 2979,
      "Ġpena": 2980,
      "ĠUnidos": 2981,
      "Ġpeg": 2982,
      "keting": 2983,
      "ativos": 2984,
      "Ġafirmou": 2985,
      "Ġtipos": 2986,
      "ĠTe": 2987,
      "ork": 2988,
      "Ġdesemp": 2989,
      "izada": 2990,
      "Ġdeco": 2991,
      "ĠSenhor": 2992,
      "Ġchegou": 2993,
      "ile": 2994,
      "ĠQue": 2995,
      "rimento": 2996,
      "sÃµes": 2997,
      "asc": 2998,
      "ĠprincÃŃp": 2999,
      "ilia": 3000,
      "ĠpÃ¡gina": 3001,
      "Ġroup": 3002,
      "Ġgovern": 3003,
      "Ã§ar": 3004,
      "ET": 3005,
      "ĠLo": 3006,
      "rÃ¡s": 3007,
      "ical": 3008,
      "AlÃ©m": 3009,
      "Ġviver": 3010,
      "antar": 3011,
      "ĠCÃ¢mara": 3012,
      "Ġtermos": 3013,
      "Ġsolic": 3014,
      "Ã©to": 3015,
      "ware": 3016,
      "Ġcores": 3017,
      "Ġdesign": 3018,
      "ebook": 3019,
      "ĠediÃ§Ã£o": 3020,
      "Ġbanc": 3021,
      "Ġhot": 3022,
      "ĠanÃ¡lise": 3023,
      "Ġtermin": 3024,
      "Ġopin": 3025,
      "ede": 3026,
      "ĠPres": 3027,
      "pas": 3028,
      "vos": 3029,
      "Ġconjunto": 3030,
      "Ãį": 3031,
      "ĠdoenÃ§a": 3032,
      "ÃŃss": 3033,
      "ĠMan": 3034,
      "ich": 3035,
      "Ġseguinte": 3036,
      "Ġsofre": 3037,
      "ĠCentro": 3038,
      "enso": 3039,
      "radas": 3040,
      "ugu": 3041,
      "etro": 3042,
      "Ġimpac": 3043,
      "Ã¢ne": 3044,
      "ĠJustiÃ§a": 3045,
      "Ġanterior": 3046,
      "Ġproposta": 3047,
      "ĠEducaÃ§Ã£o": 3048,
      "Ġprocessos": 3049,
      "ata": 3050,
      "Ġarte": 3051,
      "essÃ£o": 3052,
      "cem": 3053,
      "Ġfab": 3054,
      "Ġmomentos": 3055,
      "uÃ§Ãµes": 3056,
      "tivo": 3057,
      "Ġlivros": 3058,
      "ecimento": 3059,
      "eiÃ§Ã£o": 3060,
      "ĠversÃ£o": 3061,
      "ail": 3062,
      "Ġpeso": 3063,
      "AC": 3064,
      "Ġlocais": 3065,
      "ĠCristo": 3066,
      "ÃŃcias": 3067,
      "Ġcul": 3068,
      "Ġconse": 3069,
      "ĠMunicipal": 3070,
      "ĠFoi": 3071,
      "elig": 3072,
      "Ġinteresse": 3073,
      "Ġcrim": 3074,
      "Ar": 3075,
      "ĠEntre": 3076,
      "Ġescolha": 3077,
      "ĠespÃ©c": 3078,
      "Ġmassa": 3079,
      "Ġafirma": 3080,
      "Ġenfrent": 3081,
      "acionais": 3082,
      "ĠIgre": 3083,
      "Ġtelef": 3084,
      "Ġ22": 3085,
      "Ġoficial": 3086,
      "Ġrot": 3087,
      "Ġaspec": 3088,
      "Ã¡ss": 3089,
      "cionais": 3090,
      "emin": 3091,
      "www": 3092,
      "Ġtradic": 3093,
      "Ġcres": 3094,
      "Ġcateg": 3095,
      "Ġextra": 3096,
      "Ġestavam": 3097,
      "Ġ2016": 3098,
      "aÃ§a": 3099,
      "Ġpossib": 3100,
      "ĠAb": 3101,
      "Ġpartic": 3102,
      "Ã³t": 3103,
      "Ġcoz": 3104,
      "Ġtomar": 3105,
      "Ġprofessor": 3106,
      "tado": 3107,
      "ĠhistÃ³r": 3108,
      "enham": 3109,
      "ĠSanta": 3110,
      "ĠcomeÃ§a": 3111,
      "Ġaux": 3112,
      "ĠSim": 3113,
      "Ġanimais": 3114,
      "ham": 3115,
      "ĠInstitu": 3116,
      "Ġaud": 3117,
      "Ġsuperior": 3118,
      "ĠÃ³rg": 3119,
      "urg": 3120,
      "Ġporta": 3121,
      "Ġresposta": 3122,
      "Ġmorre": 3123,
      "Ã©tica": 3124,
      "Ġnessa": 3125,
      "ipe": 3126,
      "idÃ£o": 3127,
      "ĠdÃ©c": 3128,
      "Ġpublic": 3129,
      "Ġmund": 3130,
      "ĠTV": 3131,
      "Ġ2018": 3132,
      "ardo": 3133,
      "Ġparcer": 3134,
      "Ġbrasileira": 3135,
      "iciais": 3136,
      "ianÃ§a": 3137,
      "Ġgarantir": 3138,
      "Ġdiminu": 3139,
      "Ġ2017": 3140,
      "Ġaproxim": 3141,
      "Ġtornar": 3142,
      "ity": 3143,
      "Ã©dito": 3144,
      "Ġcomput": 3145,
      "nta": 3146,
      "DO": 3147,
      "ĠOb": 3148,
      "Ġtrein": 3149,
      "Ġefeito": 3150,
      "iza": 3151,
      "ĠOr": 3152,
      "Ġvit": 3153,
      "ĠsÃ¡b": 3154,
      "quia": 3155,
      "Ġespecialmente": 3156,
      "Ġmem": 3157,
      "15": 3158,
      "ĠbÃ¡s": 3159,
      "Ġmenor": 3160,
      "mb": 3161,
      "Ġhaver": 3162,
      "Ġmedo": 3163,
      "âĢ¢": 3164,
      "ĠDepois": 3165,
      "ĠGrande": 3166,
      "UL": 3167,
      "Ġdirig": 3168,
      "ibiliz": 3169,
      "velmente": 3170,
      "Ġindepend": 3171,
      "Ġep": 3172,
      "Ġperto": 3173,
      "Ġeconomia": 3174,
      "Ġsentir": 3175,
      "Ġsint": 3176,
      "Segundo": 3177,
      "Ġembora": 3178,
      "Ġinteress": 3179,
      "Ã´nio": 3180,
      "Ġ40": 3181,
      "ĠcrÃŃt": 3182,
      "ĠCap": 3183,
      "iro": 3184,
      "ck": 3185,
      "dades": 3186,
      "ĠmÃ©dico": 3187,
      "Ġ2014": 3188,
      "ril": 3189,
      "Ġpalavra": 3190,
      "Ġcrit": 3191,
      "ĠSecret": 3192,
      "Ġesfor": 3193,
      "Ġhou": 3194,
      "ry": 3195,
      "Ġpedido": 3196,
      "Ġdiretor": 3197,
      "wn": 3198,
      "MA": 3199,
      "vog": 3200,
      "Ġdesses": 3201,
      "Ġpert": 3202,
      "ĠatrÃ¡s": 3203,
      "enÃ§as": 3204,
      "Ġfesta": 3205,
      "ĠIgreja": 3206,
      "Ġdiante": 3207,
      "Ġhttp": 3208,
      "Ġcima": 3209,
      "Ġescolher": 3210,
      "ence": 3211,
      "Ġcidad": 3212,
      "OL": 3213,
      "Ġfundamental": 3214,
      "rÃ©": 3215,
      "Ġconfirm": 3216,
      "ĠrazÃ£o": 3217,
      "Ġinclusive": 3218,
      "Ass": 3219,
      "Ġcomport": 3220,
      "Ġset": 3221,
      "Ġesco": 3222,
      "enÃ¡rio": 3223,
      "ĠprÃ³xima": 3224,
      "Ãµe": 3225,
      "ionar": 3226,
      "ĠGover": 3227,
      "Ġapont": 3228,
      "ĠPo": 3229,
      "Ġcrist": 3230,
      "Ġnenhuma": 3231,
      "Ġproporcion": 3232,
      "Ġbaixo": 3233,
      "ater": 3234,
      "Ġeduc": 3235,
      "ation": 3236,
      "Ġlar": 3237,
      "Ġcolabora": 3238,
      "utas": 3239,
      "Ġencontro": 3240,
      "Ġperder": 3241,
      "Ġcidades": 3242,
      "US": 3243,
      "ramento": 3244,
      "Ġsatis": 3245,
      "Ġama": 3246,
      "Des": 3247,
      "ioso": 3248,
      "ĠmudanÃ§a": 3249,
      "Ã©rica": 3250,
      "ĠPorto": 3251,
      "Ġ2012": 3252,
      "ĠSilva": 3253,
      "ĠSegundo": 3254,
      "Ġapesar": 3255,
      "jamento": 3256,
      "ribunal": 3257,
      "Ġflo": 3258,
      "Ã©dio": 3259,
      "Ġsala": 3260,
      "Ġresponsabilidade": 3261,
      "Ġloja": 3262,
      "ĠtÃ©cnica": 3263,
      "ĠdiferenÃ§a": 3264,
      "Ġmara": 3265,
      "Ġindivid": 3266,
      "Ġteria": 3267,
      "Ġentrada": 3268,
      "Ġtais": 3269,
      "Ġacho": 3270,
      "Ġjovem": 3271,
      "Ġada": 3272,
      "Ġimedia": 3273,
      "ĠdeverÃ¡": 3274,
      "Ġhip": 3275,
      "entas": 3276,
      "Ġleva": 3277,
      "hia": 3278,
      "ĠcontrÃ¡rio": 3279,
      "Ã³vel": 3280,
      "Ġfundo": 3281,
      "Ġinteressa": 3282,
      "Ġcomercial": 3283,
      "ĠmÃ©to": 3284,
      "Ġgrupos": 3285,
      "Ġtrata": 3286,
      "umo": 3287,
      "ĠalcanÃ§": 3288,
      "Ġ:": 3289,
      "Ġmedic": 3290,
      "cul": 3291,
      "Ġtorna": 3292,
      "ĠFern": 3293,
      "Ao": 3294,
      "Ġvenda": 3295,
      "Ġrecup": 3296,
      "tora": 3297,
      "Ġatra": 3298,
      "erva": 3299,
      "entais": 3300,
      "Ġfisc": 3301,
      "Ġplata": 3302,
      "Ġhumano": 3303,
      "Ġrecomend": 3304,
      "Ã³veis": 3305,
      "Ġdeclara": 3306,
      "gon": 3307,
      "ĠnegÃ³cios": 3308,
      "Ġmemb": 3309,
      "21": 3310,
      "ace": 3311,
      "Ġalimentos": 3312,
      "Ġperc": 3313,
      "Ġvale": 3314,
      "ĠUS": 3315,
      "ĠBol": 3316,
      "iadas": 3317,
      "Ġcic": 3318,
      "Out": 3319,
      "emia": 3320,
      "Ġdeput": 3321,
      "ĠquestÃµes": 3322,
      "Ġrem": 3323,
      "Ġgar": 3324,
      "raf": 3325,
      "ĠMe": 3326,
      "erar": 3327,
      "Ġdescont": 3328,
      "Ġ2015": 3329,
      "Ġolhar": 3330,
      "Ġsexta": 3331,
      "Nos": 3332,
      "Ġrefere": 3333,
      "all": 3334,
      "ĠsÃ©culo": 3335,
      "ĠvisÃ£o": 3336,
      "usa": 3337,
      "Ġtime": 3338,
      "Ġaut": 3339,
      "out": 3340,
      "hado": 3341,
      "Ġmac": 3342,
      "Ġgosto": 3343,
      "Ġideal": 3344,
      "ĠvÃŃt": 3345,
      "Ġvig": 3346,
      "Ġrepresenta": 3347,
      "Ġconforme": 3348,
      "ĠTrabal": 3349,
      "Ġaquela": 3350,
      "Ġpequeno": 3351,
      "ĠCat": 3352,
      "Ġnecessidades": 3353,
      "ĠusuÃ¡rios": 3354,
      "Ġmedidas": 3355,
      "var": 3356,
      "arda": 3357,
      "ĠNova": 3358,
      "18": 3359,
      "otos": 3360,
      "itada": 3361,
      "ude": 3362,
      "ogle": 3363,
      "Ġ2013": 3364,
      "Ġapresentar": 3365,
      "Ġdicas": 3366,
      "Ġestas": 3367,
      "Ġbaix": 3368,
      "Ġseis": 3369,
      "Ġtentar": 3370,
      "ren": 3371,
      "ĠEssa": 3372,
      "Ġmostrar": 3373,
      "ĠmudanÃ§as": 3374,
      "Ġinterior": 3375,
      "ĠMais": 3376,
      "Ġcompro": 3377,
      "ĠPra": 3378,
      "ĠsoluÃ§Ã£o": 3379,
      "ĠpreÃ§os": 3380,
      "Ġmudar": 3381,
      "JÃ¡": 3382,
      "Ġcampanha": 3383,
      "ĠHÃ¡": 3384,
      "Ġler": 3385,
      "ala": 3386,
      "ven": 3387,
      "Ac": 3388,
      "Ġrap": 3389,
      "ĠRep": 3390,
      "Ġrealizado": 3391,
      "Ġconsult": 3392,
      "Ġfala": 3393,
      "Ġluta": 3394,
      "Ġdesp": 3395,
      "omos": 3396,
      "Ġtrabalhos": 3397,
      "ĠmunicÃŃpio": 3398,
      "eter": 3399,
      "ĠEsta": 3400,
      "ĠdireÃ§Ã£o": 3401,
      "ĠOu": 3402,
      "Ġordem": 3403,
      "Ġdetalhes": 3404,
      "ĠposiÃ§Ã£o": 3405,
      "ramos": 3406,
      "Ġameric": 3407,
      "ĠEsse": 3408,
      "Ġfamos": 3409,
      "Ġinterv": 3410,
      "rel": 3411,
      "reto": 3412,
      "Ġaprender": 3413,
      "ĠRod": 3414,
      "Ġaltern": 3415,
      "lhe": 3416,
      "ĠConf": 3417,
      "Ġcontar": 3418,
      "Ġprofessores": 3419,
      "rist": 3420,
      "Ġremo": 3421,
      "etas": 3422,
      "ĠdisponÃŃvel": 3423,
      "ulta": 3424,
      "Ġtempos": 3425,
      "Ġchamado": 3426,
      "Ġsepara": 3427,
      "Ġconsumo": 3428,
      "Ġcabelo": 3429,
      "Ġtotalmente": 3430,
      "Ġestudos": 3431,
      "Ġquarta": 3432,
      "Ġnorte": 3433,
      "Ġ2011": 3434,
      "Ġcursos": 3435,
      "Ġeventos": 3436,
      "ĠSol": 3437,
      "ĠTambÃ©m": 3438,
      "ĠpeÃ§as": 3439,
      "Ġvoltar": 3440,
      "Ġrefer": 3441,
      "Ġcert": 3442,
      "ames": 3443,
      "Ġmodelos": 3444,
      "sto": 3445,
      "Ġtalvez": 3446,
      "Ġquero": 3447,
      "dia": 3448,
      "Ġsubstitu": 3449,
      "Ġ23": 3450,
      "TA": 3451,
      "adual": 3452,
      "Ġdesf": 3453,
      "ĠaplicaÃ§Ã£o": 3454,
      "ubl": 3455,
      "ĠmÃ©dia": 3456,
      "ĠGl": 3457,
      "ĠLa": 3458,
      "Ġcompara": 3459,
      "Ġefeitos": 3460,
      "EI": 3461,
      "Ġprimeiros": 3462,
      "Ġdeixa": 3463,
      "ED": 3464,
      "Ġaconteceu": 3465,
      "undo": 3466,
      "ĠrealizaÃ§Ã£o": 3467,
      "Ġagu": 3468,
      "Ġinternacional": 3469,
      "Ã£s": 3470,
      "Ġmotor": 3471,
      "Ġobter": 3472,
      "Ġinov": 3473,
      "Ġportanto": 3474,
      "ront": 3475,
      "Ã§am": 3476,
      "Ġpesquis": 3477,
      "Ġnovamente": 3478,
      "ndia": 3479,
      "Ġpoucos": 3480,
      "Ġvos": 3481,
      "gues": 3482,
      "ug": 3483,
      "Ġliberdade": 3484,
      "ilhas": 3485,
      "ĠÃ¢": 3486,
      "ritÃ³rio": 3487,
      "ĠPA": 3488,
      "Ġ2010": 3489,
      "feitura": 3490,
      "Ġorigem": 3491,
      "Ġamigo": 3492,
      "Ġ198": 3493,
      "ĠSuper": 3494,
      "ĠEles": 3495,
      "Ġmateriais": 3496,
      "Ġnaqu": 3497,
      "ĠRo": 3498,
      "Ġuns": 3499,
      "olesc": 3500,
      "Ã´nia": 3501,
      "Ġcandid": 3502,
      "rop": 3503,
      "Ġconce": 3504,
      "Ġmodern": 3505,
      "alha": 3506,
      "Ġvisita": 3507,
      "Ġparticipar": 3508,
      "ĠSt": 3509,
      "ramente": 3510,
      "fÃ©": 3511,
      "idez": 3512,
      "Ġtare": 3513,
      "Ġcontinuar": 3514,
      "Ġanunc": 3515,
      "Ġeleito": 3516,
      "Ġflu": 3517,
      "una": 3518,
      "Ġoferecer": 3519,
      "Ġpec": 3520,
      "ĠNov": 3521,
      "Ġmelhorar": 3522,
      "Ġtab": 3523,
      "Ġaumentar": 3524,
      "Ġvant": 3525,
      "Ġsistemas": 3526,
      "Ġgere": 3527,
      "ĠvÃª": 3528,
      "Ġvenc": 3529,
      "ĠCarlos": 3530,
      "Ġescolh": 3531,
      "Fonte": 3532,
      "itivos": 3533,
      "orias": 3534,
      "Ġclass": 3535,
      "Ġassum": 3536,
      "eir": 3537,
      "Ġcompartilh": 3538,
      "rita": 3539,
      "Ġperde": 3540,
      "ĠbenefÃŃcios": 3541,
      "ĠPolÃŃcia": 3542,
      "Ġhumanos": 3543,
      "intes": 3544,
      "ĠSantos": 3545,
      "Ġdefesa": 3546,
      "Ġacontecer": 3547,
      "Ġlat": 3548,
      "Ġanalis": 3549,
      "Ġcant": 3550,
      "ariamente": 3551,
      "Ġselec": 3552,
      "uito": 3553,
      "inham": 3554,
      "etes": 3555,
      "ĠAf": 3556,
      "Ġcusto": 3557,
      "Ġlic": 3558,
      "eras": 3559,
      "use": 3560,
      "Ġgosta": 3561,
      "Ġpers": 3562,
      "Ġutilizar": 3563,
      "ĠpolÃŃticas": 3564,
      "16": 3565,
      "Ġcrise": 3566,
      "enciais": 3567,
      "Ġdezembro": 3568,
      "Ġquarto": 3569,
      "esqu": 3570,
      "Ġconclu": 3571,
      "Ġmec": 3572,
      "cido": 3573,
      "ĠMil": 3574,
      "Ġrele": 3575,
      "ĠDA": 3576,
      "Ġconsegue": 3577,
      "ĠproteÃ§Ã£o": 3578,
      "Ġlink": 3579,
      "ĠmÃ¡qu": 3580,
      "Ġexplica": 3581,
      "ĠRob": 3582,
      "Ġseguida": 3583,
      "Ġconhecido": 3584,
      "PS": 3585,
      "ĠcaracterÃŃsticas": 3586,
      "eses": 3587,
      "ĠCal": 3588,
      "Ġdemoc": 3589,
      "itantes": 3590,
      "ĠFl": 3591,
      "Ġfutebol": 3592,
      "Ġdiretamente": 3593,
      "Ġglob": 3594,
      "Ġconsid": 3595,
      "ĠBra": 3596,
      "Ġigre": 3597,
      "Ġconcent": 3598,
      "Ġsecret": 3599,
      "Ġdema": 3600,
      "ment": 3601,
      "At": 3602,
      "utenÃ§Ã£o": 3603,
      "Ġpequena": 3604,
      "artamento": 3605,
      "ĠCasa": 3606,
      "Ġult": 3607,
      "Ġ&": 3608,
      "Ġeta": 3609,
      "14": 3610,
      "Ġbair": 3611,
      "Ġoutubro": 3612,
      "Ġobt": 3613,
      "eiÃ§Ãµes": 3614,
      "Cont": 3615,
      "Ġinicial": 3616,
      "Ġinstrum": 3617,
      "ĠtÃŃtulo": 3618,
      "Ġconsequ": 3619,
      "Ġganhar": 3620,
      "Ġmembros": 3621,
      "Ġleitura": 3622,
      "ator": 3623,
      "ĠMed": 3624,
      "ĠsituaÃ§Ãµes": 3625,
      "Ġdomingo": 3626,
      "itou": 3627,
      "ĠavaliaÃ§Ã£o": 3628,
      "Ġpresentes": 3629,
      "Ġpsic": 3630,
      "itais": 3631,
      "Ġmand": 3632,
      "Ġincluindo": 3633,
      "ĠInstituto": 3634,
      "Ġmaio": 3635,
      "Ġpraz": 3636,
      "Ġrealizada": 3637,
      "ĠrÃ¡pido": 3638,
      "ĠpÃºblicos": 3639,
      "ĠutilizaÃ§Ã£o": 3640,
      "Ġpagar": 3641,
      "13": 3642,
      "iosa": 3643,
      "Ã³st": 3644,
      "Ġpartes": 3645,
      "Ġentrega": 3646,
      "Ġsug": 3647,
      "urais": 3648,
      "Ġdesempenho": 3649,
      "into": 3650,
      "Ġsimplesmente": 3651,
      "Â»": 3652,
      "lÃªs": 3653,
      "Ġparceria": 3654,
      "Ġpasse": 3655,
      "Ġvisto": 3656,
      "Ġminhas": 3657,
      "ĠmarÃ§o": 3658,
      "ĠpÃ©": 3659,
      "apa": 3660,
      "Ġjaneiro": 3661,
      "ĠjurÃŃd": 3662,
      "Ġcontrol": 3663,
      "ĠSÃ³": 3664,
      "ĠFor": 3665,
      "Ġcoorden": 3666,
      "Ġbrasileiros": 3667,
      "Ġtri": 3668,
      "ĠProf": 3669,
      "ĠIN": 3670,
      "eleza": 3671,
      "Ġsomos": 3672,
      "Ġestiver": 3673,
      "qÃ¼": 3674,
      "ĠBo": 3675,
      "Ġfix": 3676,
      "Ġbusc": 3677,
      "Ġ60": 3678,
      "ĠdisponÃŃveis": 3679,
      "ĠEUA": 3680,
      "Ġquinta": 3681,
      "ndere": 3682,
      "Ġfemin": 3683,
      "ĠDia": 3684,
      "Ġpotencial": 3685,
      "Ġfui": 3686,
      "Ġmesmos": 3687,
      "Ġsignific": 3688,
      "ĠQU": 3689,
      "Ġrua": 3690,
      "Ġimpre": 3691,
      "azer": 3692,
      "ĠBe": 3693,
      "Ġparticular": 3694,
      "Ġigual": 3695,
      "Ġmanifesta": 3696,
      "Ġrequ": 3697,
      "Ġemail": 3698,
      "Ġmente": 3699,
      "Ġfranc": 3700,
      "Ġmotivo": 3701,
      "itude": 3702,
      "ĠAssoc": 3703,
      "Ġhid": 3704,
      "Ġclara": 3705,
      "ĠindÃºst": 3706,
      "17": 3707,
      "Ġtamanho": 3708,
      "elh": 3709,
      "encia": 3710,
      "Ġceleb": 3711,
      "iamento": 3712,
      ".\"": 3713,
      "ff": 3714,
      "vest": 3715,
      "Ġprogramas": 3716,
      "Ġnut": 3717,
      "Ġaltura": 3718,
      "iritu": 3719,
      "ĠmÃ¡ximo": 3720,
      "Ġweb": 3721,
      "ĠPedro": 3722,
      "ĠEuropa": 3723,
      "Ġvolt": 3724,
      "Ġbrinc": 3725,
      "atÃ³rio": 3726,
      "Ġpopular": 3727,
      "sion": 3728,
      "Ġgal": 3729,
      "Ġdessas": 3730,
      "ong": 3731,
      "ĠindivÃŃdu": 3732,
      "orme": 3733,
      "ĠGoverno": 3734,
      "Ġsangue": 3735,
      "Ġlonge": 3736,
      "ĠdÃºvida": 3737,
      "Ã¡r": 3738,
      "ĠfÃŃsica": 3739,
      "Ġmic": 3740,
      "Ã©rcio": 3741,
      "Ġusado": 3742,
      "Ãĵ": 3743,
      "vas": 3744,
      "Ġescolas": 3745,
      "Ġfest": 3746,
      "Ġintelig": 3747,
      "erir": 3748,
      "Ġpud": 3749,
      "Ġvend": 3750,
      "oraÃ§Ã£o": 3751,
      "cha": 3752,
      "Ġregul": 3753,
      "Ġnar": 3754,
      "Ġdigital": 3755,
      "Ġdelas": 3756,
      "Ġtransporte": 3757,
      "Ġaquilo": 3758,
      "Ġsetembro": 3759,
      "Ġinspira": 3760,
      "gares": 3761,
      "ĠfaÃ§a": 3762,
      "Ġfigu": 3763,
      "ĠinstituiÃ§Ãµes": 3764,
      "alizada": 3765,
      "Ġcaminh": 3766,
      "ĠcrÃ©dito": 3767,
      "Ġjunho": 3768,
      "En": 3769,
      "Ġlegal": 3770,
      "Ġbra": 3771,
      "Ġboas": 3772,
      "Ġqueria": 3773,
      "esmo": 3774,
      "vereiro": 3775,
      "Ġprecisam": 3776,
      "porta": 3777,
      "grafia": 3778,
      "ĠGoogle": 3779,
      "ÃŃqu": 3780,
      "turas": 3781,
      "Ġnovembro": 3782,
      "olÃ³gico": 3783,
      "ĠCOM": 3784,
      "Ġmarav": 3785,
      "ĠConselho": 3786,
      "ĠInd": 3787,
      "irar": 3788,
      "ĠtÃ©cnicas": 3789,
      "ĠSocial": 3790,
      "Ġelementos": 3791,
      "ĠFre": 3792,
      "Ġabril": 3793,
      "Ġunivers": 3794,
      "Ġbot": 3795,
      "ĠsÃ¡bado": 3796,
      "Ġcarreira": 3797,
      "ÃŃamos": 3798,
      "ÃŃb": 3799,
      "zinho": 3800,
      "Ġlidera": 3801,
      "trÃ´n": 3802,
      "SO": 3803,
      "Ġjulg": 3804,
      "oma": 3805,
      "Ġcompleta": 3806,
      "ĠmatÃ©ria": 3807,
      "ĠTerra": 3808,
      "Ġmensagem": 3809,
      "AP": 3810,
      "Ġreais": 3811,
      "leta": 3812,
      "ample": 3813,
      "Ġame": 3814,
      "Ġdiscut": 3815,
      "ĠrelaÃ§Ãµes": 3816,
      "Ã©ia": 3817,
      "Ġdivid": 3818,
      "irÃ¡": 3819,
      "ĠCan": 3820,
      "Ġinterpre": 3821,
      "ĠdoenÃ§as": 3822,
      "itiva": 3823,
      "Ġregras": 3824,
      "Ãºblica": 3825,
      "Ġempreg": 3826,
      "Ġsor": 3827,
      "Ġefic": 3828,
      "Ġdesenvolver": 3829,
      "ĠFacebook": 3830,
      "Ġequipamentos": 3831,
      "Ġluc": 3832,
      "name": 3833,
      "anda": 3834,
      "Ġcontas": 3835,
      "Ġcomem": 3836,
      "ps": 3837,
      "Ġvendas": 3838,
      "Ġvaria": 3839,
      "Ġfunciona": 3840,
      "ĠnÂº": 3841,
      "UN": 3842,
      "Ġministro": 3843,
      "Ġlegisl": 3844,
      "Ġchega": 3845,
      "Ġacresc": 3846,
      "Ġposso": 3847,
      "Le": 3848,
      "Ġverm": 3849,
      "ier": 3850,
      "Ġextrem": 3851,
      "Ġocas": 3852,
      "Ġinteressante": 3853,
      "Ġ'": 3854,
      "ĠAinda": 3855,
      "Ġbac": 3856,
      "tion": 3857,
      "Ġcadas": 3858,
      "Ġnam": 3859,
      "Ġassin": 3860,
      "Ġtirar": 3861,
      "Ġcasamento": 3862,
      "ologias": 3863,
      "eremos": 3864,
      "Ġincr": 3865,
      "ĠSecretaria": 3866,
      "ĠAgora": 3867,
      "Ġelim": 3868,
      "Ġpet": 3869,
      "Ġreserv": 3870,
      "HÃ¡": 3871,
      "ĠMat": 3872,
      "Ġ28": 3873,
      "Ġjulho": 3874,
      "nsa": 3875,
      "Ġsustent": 3876,
      "hada": 3877,
      "Ġmob": 3878,
      "ĠfuncionÃ¡rios": 3879,
      "Ġinvestimento": 3880,
      "Ġtenham": 3881,
      "ĠusuÃ¡rio": 3882,
      "Ġcontex": 3883,
      "cel": 3884,
      "til": 3885,
      "Pre": 3886,
      "Ġnave": 3887,
      "ĠmanutenÃ§Ã£o": 3888,
      "ego": 3889,
      "Ġtempera": 3890,
      "Depois": 3891,
      "ĠcientÃŃf": 3892,
      "Ġpossam": 3893,
      "ĠdÃºvidas": 3894,
      "aran": 3895,
      "Ġcontinua": 3896,
      "rÃ³": 3897,
      "Ġadolesc": 3898,
      "vido": 3899,
      "tware": 3900,
      "ĠsoluÃ§Ãµes": 3901,
      "Ġdisponibiliz": 3902,
      "Ġcuidado": 3903,
      "Ġesteja": 3904,
      "rais": 3905,
      "ÃŃlias": 3906,
      "Ġcerta": 3907,
      "age": 3908,
      "pp": 3909,
      "ĠTodos": 3910,
      "Ġpequenos": 3911,
      "Ġvoz": 3912,
      "th": 3913,
      "Ġhotel": 3914,
      "rÃŃc": 3915,
      "ĠTribunal": 3916,
      "Tra": 3917,
      "example": 3918,
      "ĠTer": 3919,
      "Ġmundial": 3920,
      "ĠopiniÃ£o": 3921,
      "Ġagosto": 3922,
      "Ġpint": 3923,
      "ner": 3924,
      "Ġdiscus": 3925,
      "Ġcontrato": 3926,
      "ĠSanto": 3927,
      "Ġcontem": 3928,
      "iental": 3929,
      "Ġaparel": 3930,
      "itados": 3931,
      "TO": 3932,
      "Ġlugares": 3933,
      "Ġfar": 3934,
      "Ã¢ncias": 3935,
      "Ġfru": 3936,
      "ĠConc": 3937,
      "dora": 3938,
      "Ġtrabalhadores": 3939,
      "Ġfonte": 3940,
      "riu": 3941,
      "rique": 3942,
      "ĠreduÃ§Ã£o": 3943,
      "Ġsil": 3944,
      "ncio": 3945,
      "Ġtornou": 3946,
      "rea": 3947,
      "Ã©tico": 3948,
      "Ġperda": 3949,
      "ĠpolÃŃtico": 3950,
      "respo": 3951,
      "ipo": 3952,
      "esas": 3953,
      "Ġestiv": 3954,
      "ÃŃdos": 3955,
      "ĠAmÃ©rica": 3956,
      "izados": 3957,
      "Ġquiser": 3958,
      "Ġoriginal": 3959,
      "omas": 3960,
      "Ġequil": 3961,
      "ĠavanÃ§": 3962,
      "ĠapresentaÃ§Ã£o": 3963,
      "Ġdepe": 3964,
      "Ġprovoc": 3965,
      "ĠComun": 3966,
      "Ġfilmes": 3967,
      "Ġpacientes": 3968,
      "Ġlou": 3969,
      "Ġ27": 3970,
      "Ġ26": 3971,
      "ĠEv": 3972,
      "cho": 3973,
      "vaÃ§Ã£o": 3974,
      "jud": 3975,
      "icou": 3976,
      "posto": 3977,
      "Ġpossuem": 3978,
      "Ġtoc": 3979,
      "ĠexercÃŃcio": 3980,
      "omin": 3981,
      "Ġnota": 3982,
      "Ġesquer": 3983,
      "Ġexcelente": 3984,
      "isb": 3985,
      "ĠtÃ©cnico": 3986,
      "ĠÃ¡r": 3987,
      "Ġbasta": 3988,
      "Ele": 3989,
      "ĠviolÃªncia": 3990,
      "ĠMic": 3991,
      "Ġbeleza": 3992,
      "Ġquere": 3993,
      "ĠProc": 3994,
      "hn": 3995,
      "Ġcentral": 3996,
      "Ġaz": 3997,
      "Ġseguintes": 3998,
      "Mais": 3999,
      "ĠPS": 4000,
      "Ġbenefic": 4001,
      "bora": 4002,
      "loque": 4003,
      "Ġtrad": 4004,
      "istem": 4005,
      "Ġenvolve": 4006,
      "Ġmeta": 4007,
      "Ġdeixou": 4008,
      "Ġato": 4009,
      "cimento": 4010,
      "Que": 4011,
      "Ġutilizando": 4012,
      "ĠInst": 4013,
      "Ġrecebeu": 4014,
      "ĠPe": 4015,
      "ans": 4016,
      "AB": 4017,
      "Ġemoc": 4018,
      "Ġprefer": 4019,
      "ĠTec": 4020,
      "Ġouvir": 4021,
      "itores": 4022,
      "ntem": 4023,
      "Ġmistura": 4024,
      "Ġhumana": 4025,
      "Ġabrir": 4026,
      "ĠLuc": 4027,
      "Ġestudantes": 4028,
      "envolv": 4029,
      "Ġdeveria": 4030,
      "usÃ£o": 4031,
      "Ġentrevista": 4032,
      "ĠQuem": 4033,
      "Ġrefor": 4034,
      "Ġcrime": 4035,
      "guas": 4036,
      "ĠterÃ§a": 4037,
      "Ġperfe": 4038,
      "Ġport": 4039,
      "entado": 4040,
      "Ġce": 4041,
      "ĠmÃŃnimo": 4042,
      "rativa": 4043,
      "ĠNorte": 4044,
      "pla": 4045,
      "ĠreuniÃ£o": 4046,
      "Ġespiritu": 4047,
      "Ġdeseja": 4048,
      "Ġleve": 4049,
      "ese": 4050,
      "antos": 4051,
      "ilos": 4052,
      "Ġveio": 4053,
      "ĠDa": 4054,
      "Ġlet": 4055,
      "ÃŃder": 4056,
      "omb": 4057,
      "ĠfamÃŃlias": 4058,
      "mete": 4059,
      "iso": 4060,
      "Esta": 4061,
      "ĠexistÃªncia": 4062,
      "iquei": 4063,
      "Ġunidade": 4064,
      "ĠoperaÃ§Ã£o": 4065,
      "ieta": 4066,
      "Ġcomputador": 4067,
      "Ġ2019": 4068,
      "Ġexpec": 4069,
      "Ġacad": 4070,
      "istema": 4071,
      "Cl": 4072,
      "Ġexat": 4073,
      "ĠpoderÃ£o": 4074,
      "Ġurb": 4075,
      "!!!": 4076,
      "Ġguerra": 4077,
      "nas": 4078,
      "Ġdando": 4079,
      "Ġsuficiente": 4080,
      "Ġclique": 4081,
      "Ġleite": 4082,
      "ĠCultura": 4083,
      "Ġveloc": 4084,
      "Ġdocumentos": 4085,
      "Ġexib": 4086,
      "ĠprÃ¡ticas": 4087,
      "Ġmesa": 4088,
      "Ġdestru": 4089,
      "Ġlav": 4090,
      "Ġadicion": 4091,
      "Ġ2009": 4092,
      "ĠAmb": 4093,
      "ĠFer": 4094,
      "ago": 4095,
      "Ġhon": 4096,
      "25": 4097,
      "ale": 4098,
      "arc": 4099,
      "Ġimped": 4100,
      "ÃŃrus": 4101,
      "Ġfeitas": 4102,
      "Ã¡lia": 4103,
      "oda": 4104,
      "Ġacus": 4105,
      "ĠÃ¡l": 4106,
      "Ġpaz": 4107,
      "ĠestratÃ©gia": 4108,
      "ĠSua": 4109,
      "Ġplataforma": 4110,
      "Ġessencial": 4111,
      "Ġatender": 4112,
      "ĠlÃŃn": 4113,
      "Ġacaba": 4114,
      "Ġlojas": 4115,
      "nÃ£o": 4116,
      "Ġmarketing": 4117,
      "ĠRepÃºblica": 4118,
      "ĠcartÃ£o": 4119,
      "Ġdro": 4120,
      "ĠelÃ©t": 4121,
      "Ġare": 4122,
      "ĠEST": 4123,
      "umb": 4124,
      "aso": 4125,
      "eleÃ§Ã£o": 4126,
      "ilar": 4127,
      "Ġdivert": 4128,
      "iaÃ§Ãµes": 4129,
      "eiramente": 4130,
      "Ġhuman": 4131,
      "ĠclÃ¡ss": 4132,
      "guns": 4133,
      "Ġhouve": 4134,
      "rex": 4135,
      "Ġafet": 4136,
      "Ġnormal": 4137,
      "aco": 4138,
      "ĠpeÃ§a": 4139,
      "ĠInf": 4140,
      "Ġseguro": 4141,
      "Ġressal": 4142,
      "Ġtaxa": 4143,
      "Ġconfigu": 4144,
      "Ġconceito": 4145,
      "Ġintens": 4146,
      "Ġher": 4147,
      "ĠcenÃ¡rio": 4148,
      "alo": 4149,
      "orrer": 4150,
      "ick": 4151,
      "Ġexperim": 4152,
      "olÃ³gica": 4153,
      "Ġocorr": 4154,
      "ĠpÃºblicas": 4155,
      "Ġentra": 4156,
      "ĠnÃŃveis": 4157,
      "ith": 4158,
      "Ġendere": 4159,
      "iverso": 4160,
      "Ġchamada": 4161,
      "Ġsexo": 4162,
      "http": 4163,
      "Ġbanco": 4164,
      "ĠPart": 4165,
      "entando": 4166,
      "Ġcompleto": 4167,
      "Ġaulas": 4168,
      "ĠCa": 4169,
      "dust": 4170,
      "Ġideias": 4171,
      "Ġdocumento": 4172,
      "Ġtroca": 4173,
      "iscos": 4174,
      "rol": 4175,
      "DB": 4176,
      "Ġcorrespo": 4177,
      "Ã¡ticos": 4178,
      "Ã§Ã£este": 4179,
      "Ġpersonagens": 4180,
      "ificados": 4181,
      "culos": 4182,
      "ĠreferÃªncia": 4183,
      "Ġbe": 4184,
      "Ġcelular": 4185,
      "ĠCab": 4186,
      "ĠgeraÃ§Ã£o": 4187,
      "Ġreflex": 4188,
      "ĠBr": 4189,
      "Ġprem": 4190,
      "Ã³sito": 4191,
      "Ġamar": 4192,
      "ĠespÃ©cie": 4193,
      "ĠconsciÃªncia": 4194,
      ");": 4195,
      "Ġadvog": 4196,
      "ĠGeral": 4197,
      "Ġbio": 4198,
      "Ġconseguiu": 4199,
      "Ġdet": 4200,
      "itÃ¡rio": 4201,
      "Ġelabora": 4202,
      "ĠÃŃnd": 4203,
      "Ġsuspe": 4204,
      "rior": 4205,
      "antil": 4206,
      "Ġpessoais": 4207,
      "Ġbons": 4208,
      "ode": 4209,
      "Ġprec": 4210,
      "ĠvÃŃdeos": 4211,
      "Ġacabou": 4212,
      "ĠTr": 4213,
      "Ġtiver": 4214,
      "Ġcompletamente": 4215,
      "ĠUniÃ£o": 4216,
      "Ġcaixa": 4217,
      "Ġsubst": 4218,
      "Ġtemporada": 4219,
      "ĠSE": 4220,
      "Ġarm": 4221,
      "rupo": 4222,
      "Ġcac": 4223,
      "Co": 4224,
      "Ġsatisf": 4225,
      "Ġexpecta": 4226,
      "obo": 4227,
      "Ġsites": 4228,
      "Ġrepet": 4229,
      "60": 4230,
      "ĠFund": 4231,
      "ĠeletrÃ´n": 4232,
      "Ġseg": 4233,
      "Ġcomer": 4234,
      "isboa": 4235,
      "PR": 4236,
      "40": 4237,
      "Ġdificuldades": 4238,
      "DE": 4239,
      "ĠpressÃ£o": 4240,
      "identes": 4241,
      "ĠHoje": 4242,
      "Ġcult": 4243,
      "onato": 4244,
      "ĠCivil": 4245,
      "Ġband": 4246,
      "Ġpaciente": 4247,
      "Ġtinham": 4248,
      "ĠTur": 4249,
      "ĠTudo": 4250,
      "utar": 4251,
      "Ã¢nt": 4252,
      "ragem": 4253,
      "ĠinstituiÃ§Ã£o": 4254,
      "ĠcafÃ©": 4255,
      "Ġdado": 4256,
      "ĠinglÃªs": 4257,
      "Ġganho": 4258,
      "Ġtrazer": 4259,
      "Ġgeralmente": 4260,
      "ĠPÃºblico": 4261,
      "edades": 4262,
      "Ġrenda": 4263,
      "Ġferramentas": 4264,
      "Ġcategoria": 4265,
      "fere": 4266,
      "Ġmarcas": 4267,
      "Ġdesper": 4268,
      "ibl": 4269,
      "ĠpadrÃ£o": 4270,
      "Ġlingu": 4271,
      "Ġcinema": 4272,
      "Ġsonho": 4273,
      "ĠcÃ³digo": 4274,
      "Ġarre": 4275,
      "ĠÂ«": 4276,
      "Ġbanda": 4277,
      "ĠatuaÃ§Ã£o": 4278,
      "inÃ¡rio": 4279,
      "ĠServi": 4280,
      "Ġescrito": 4281,
      "Ġpartida": 4282,
      "Ġalegria": 4283,
      "22": 4284,
      "presa": 4285,
      "tÃ³rio": 4286,
      "Ġficam": 4287,
      "Ġsuje": 4288,
      "Ġcandida": 4289,
      "ĠNatal": 4290,
      "Ġobjetivos": 4291,
      "Entre": 4292,
      "Ġexce": 4293,
      "Ġincent": 4294,
      "Ġtemas": 4295,
      "Ġfornec": 4296,
      "ĠSou": 4297,
      "oque": 4298,
      "Ġabando": 4299,
      "Ġsemanas": 4300,
      "Ġacha": 4301,
      "Ġfuncionamento": 4302,
      "ĠDan": 4303,
      "ĠDep": 4304,
      "Ġartes": 4305,
      "irem": 4306,
      "gresso": 4307,
      "ĠveÃŃculo": 4308,
      "Ġprodut": 4309,
      "Ġruas": 4310,
      "ĠEM": 4311,
      "ĠadministraÃ§Ã£o": 4312,
      "unda": 4313,
      "Ġcomportamento": 4314,
      "Ġcruz": 4315,
      "Ġquestion": 4316,
      "Ġdelic": 4317,
      "ĠmissÃ£o": 4318,
      "Ġantec": 4319,
      "Ã¡dio": 4320,
      "Ġrepro": 4321,
      "ulado": 4322,
      "Ġtorno": 4323,
      "Ġlog": 4324,
      "ĠTrans": 4325,
      "âĢĶ": 4326,
      "missÃ£o": 4327,
      "Ġvivo": 4328,
      "Ġ29": 4329,
      "ega": 4330,
      "Ġcampe": 4331,
      "ĠestarÃ¡": 4332,
      "ĠmÃŃd": 4333,
      "Ġfoco": 4334,
      "Ġ197": 4335,
      "Ġabsol": 4336,
      "Ġinfer": 4337,
      "Ġdesenvolve": 4338,
      "riÃ§Ãµes": 4339,
      "Ġprom": 4340,
      "Ġdin": 4341,
      "Ġalma": 4342,
      "ixo": 4343,
      "NC": 4344,
      "eda": 4345,
      "ĠTal": 4346,
      "ĠConstitu": 4347,
      "lusÃ£o": 4348,
      "Ġdesejo": 4349,
      "estes": 4350,
      "bro": 4351,
      "ĠRodri": 4352,
      "Ġtradicional": 4353,
      "Ġconduz": 4354,
      "Ġaula": 4355,
      "PA": 4356,
      "Ġ+": 4357,
      "ĠDis": 4358,
      "iliares": 4359,
      "etros": 4360,
      "Ġlembrar": 4361,
      "Ã³log": 4362,
      "Ġimplem": 4363,
      "ĠIt": 4364,
      "Ġescrever": 4365,
      "Ġemprego": 4366,
      "Ġutilizado": 4367,
      "ĠcomentÃ¡rios": 4368,
      "Quem": 4369,
      "Ġclube": 4370,
      "ĠexperiÃªncias": 4371,
      "Ġsede": 4372,
      "Ġrestaura": 4373,
      "Ġmoda": 4374,
      "Ġiniciativa": 4375,
      "Ġsurpre": 4376,
      "Ġfel": 4377,
      "isÃ³d": 4378,
      "Ġarmaz": 4379,
      "Ġjeito": 4380,
      "Ġjogadores": 4381,
      "Ob": 4382,
      "ĠDr": 4383,
      "ĠaÃ§": 4384,
      "Ġ80": 4385,
      "Ġpersonagem": 4386,
      "ĠPas": 4387,
      "Ġregular": 4388,
      "Ġprefeito": 4389,
      "ĠMund": 4390,
      "Ġexatamente": 4391,
      "Ġdeixe": 4392,
      "Ġcompanhia": 4393,
      "ĠmÃ©dio": 4394,
      "Ġbranco": 4395,
      "ĠindÃºstria": 4396,
      "Ġbairro": 4397,
      "Ġindust": 4398,
      "Ġabra": 4399,
      "onia": 4400,
      "Ġfederal": 4401,
      "Ġcuidados": 4402,
      "conc": 4403,
      "Ġpequenas": 4404,
      "ĠprÃ³ximos": 4405,
      "ĠveÃŃculos": 4406,
      "Ġfevereiro": 4407,
      "tim": 4408,
      "Ġreceita": 4409,
      "Ġbaixa": 4410,
      "Ġadver": 4411,
      "Ã³gica": 4412,
      "Ġabertura": 4413,
      "ĠInternet": 4414,
      "ĠpolÃŃcia": 4415,
      "Ġimpacto": 4416,
      "sia": 4417,
      "Ġigreja": 4418,
      "Ġded": 4419,
      "ĠpÃ³s": 4420,
      "Ġconfl": 4421,
      "ĠalimentaÃ§Ã£o": 4422,
      "Ġjud": 4423,
      "Art": 4424,
      "ĠII": 4425,
      "ĠlanÃ§amento": 4426,
      "ĠconfianÃ§a": 4427,
      "Ġsuporte": 4428,
      "Ġquerem": 4429,
      "Ġfilha": 4430,
      "Ġsexual": 4431,
      "Ġcustos": 4432,
      "alh": 4433,
      "hares": 4434,
      "Ġsusp": 4435,
      "Ġdestino": 4436,
      "ĠcÃ¢m": 4437,
      "ĠmemÃ³ria": 4438,
      "ĠPrograma": 4439,
      "ĠprÃ³prios": 4440,
      "rag": 4441,
      "ates": 4442,
      "ĠRa": 4443,
      "Ġcultural": 4444,
      "eca": 4445,
      "Rec": 4446,
      "Ġmetros": 4447,
      "Ġadap": 4448,
      "ĠBras": 4449,
      "Hoje": 4450,
      "ĠNeg": 4451,
      "Ġsorte": 4452,
      "Ġpalest": 4453,
      "ĠSeu": 4454,
      "Ġpartido": 4455,
      "ĠbilhÃµes": 4456,
      "Res": 4457,
      "Ġsup": 4458,
      "Ġdorm": 4459,
      "eixe": 4460,
      "Ġespeciais": 4461,
      "Ġtelefone": 4462,
      "SÃ£o": 4463,
      "Ġhospital": 4464,
      "ON": 4465,
      "Ġfatores": 4466,
      "Ġimposs": 4467,
      "ĠÃ´": 4468,
      "ĠlÃŃder": 4469,
      "Ġsul": 4470,
      "Ġparticipantes": 4471,
      "Ġescreve": 4472,
      "Ġargum": 4473,
      "Ġunidades": 4474,
      "Ġfir": 4475,
      "Ġdiscipl": 4476,
      "ĠAtÃ©": 4477,
      "DA": 4478,
      "Ġdiagn": 4479,
      "Ġclasse": 4480,
      "Ġconserv": 4481,
      "ĠfunÃ§Ãµes": 4482,
      "ĠpÃ©s": 4483,
      "Ġcura": 4484,
      "uar": 4485,
      "Ġsete": 4486,
      "ĠMag": 4487,
      "ĠEscola": 4488,
      "asta": 4489,
      "Ġnomes": 4490,
      "icando": 4491,
      "Ġvelocidade": 4492,
      "acidade": 4493,
      "ash": 4494,
      "Ġrosto": 4495,
      "Ġreno": 4496,
      "ĠFrancisco": 4497,
      "Ġplanos": 4498,
      "zas": 4499,
      "rida": 4500,
      "ÃŃtica": 4501,
      "Ġatend": 4502,
      "ber": 4503,
      "Ġge": 4504,
      "ĠAssociaÃ§Ã£o": 4505,
      "Ġcanto": 4506,
      "Ġatualmente": 4507,
      "Ġconden": 4508,
      "Ġestat": 4509,
      "rece": 4510,
      "IG": 4511,
      "Ġmens": 4512,
      "pecial": 4513,
      "Ã¢nc": 4514,
      "Ġprior": 4515,
      "ĠLisboa": 4516,
      "Ġpromover": 4517,
      "uncia": 4518,
      "ĠArt": 4519,
      "Ġrespec": 4520,
      "Ġcontexto": 4521,
      "ĠEnc": 4522,
      "ki": 4523,
      "culo": 4524,
      "ĠMart": 4525,
      "ICA": 4526,
      "Ġretira": 4527,
      "ĠOliv": 4528,
      "ĠSab": 4529,
      "Ġtrib": 4530,
      "ualmente": 4531,
      "Ġenorme": 4532,
      "ĠPRO": 4533,
      "Ġferramenta": 4534,
      "Ġfortal": 4535,
      "ĊĊ": 4536,
      "Ġtela": 4537,
      "orge": 4538,
      "Ġatribu": 4539,
      "Ġlevant": 4540,
      "ĠAdminist": 4541,
      "ÃŃlio": 4542,
      "ĠhistÃ³rias": 4543,
      "Ġgo": 4544,
      "Ġcivil": 4545,
      "ĠPode": 4546,
      "ĠtrÃ¡s": 4547,
      "bio": 4548,
      "ĠPrim": 4549,
      "Ġmeios": 4550,
      "Ġdestaque": 4551,
      "Ġimprensa": 4552,
      "Ġpreserv": 4553,
      "Ser": 4554,
      "ĠLiv": 4555,
      "Ġsemelha": 4556,
      "Ġcasas": 4557,
      "uldade": 4558,
      "tivos": 4559,
      "iblio": 4560,
      "Ġdiferenc": 4561,
      "cida": 4562,
      "Ġpensamento": 4563,
      "Ġrecurso": 4564,
      "ertas": 4565,
      "tualmente": 4566,
      "Ġambos": 4567,
      "bilidade": 4568,
      "Ġfogo": 4569,
      "ĠApÃ³s": 4570,
      "ende": 4571,
      "Ġjogar": 4572,
      "ĠMel": 4573,
      "90": 4574,
      "Ġmad": 4575,
      "Ġboca": 4576,
      "Ġescla": 4577,
      "ini": 4578,
      "Sem": 4579,
      "ificaÃ§Ãµes": 4580,
      "ĠPorÃ©m": 4581,
      "Ġ70": 4582,
      "Ġ2008": 4583,
      "ÃĬ": 4584,
      "Ġcargo": 4585,
      "Ġtranqu": 4586,
      "Ġmicro": 4587,
      "Ġoportunidades": 4588,
      "Ġrapidamente": 4589,
      "ecut": 4590,
      "plos": 4591,
      "ĠSam": 4592,
      "Ġvac": 4593,
      "ph": 4594,
      "Ġganha": 4595,
      "Ġreclam": 4596,
      "tividade": 4597,
      "Ã§amento": 4598,
      "ĠepisÃ³d": 4599,
      "envolvimento": 4600,
      "Ġpreenc": 4601,
      "Ġcompos": 4602,
      "ĠLula": 4603,
      "Ġaspectos": 4604,
      "Ġaluno": 4605,
      "ĠCur": 4606,
      "itamente": 4607,
      "Ġeuro": 4608,
      "Assim": 4609,
      "ĠQual": 4610,
      "ci": 4611,
      "oto": 4612,
      "24": 4613,
      "ĠDec": 4614,
      "ĠsaÃŃda": 4615,
      "Ġconsiderado": 4616,
      "Ã§ado": 4617,
      "itet": 4618,
      "Is": 4619,
      "Ġpraia": 4620,
      "Ġsoftware": 4621,
      "ibus": 4622,
      "elhos": 4623,
      "Ġquadro": 4624,
      "Ãºcar": 4625,
      "Ġsel": 4626,
      "erno": 4627,
      "Ġterceiro": 4628,
      "Veja": 4629,
      "Ġnaturais": 4630,
      "ĠcondiÃ§Ã£o": 4631,
      "Ġilum": 4632,
      "Ġach": 4633,
      "Ġperceber": 4634,
      "Ġec": 4635,
      "plem": 4636,
      "ADE": 4637,
      "Ġtira": 4638,
      "ĠLeg": 4639,
      "Ġsinal": 4640,
      "Ġprofund": 4641,
      "Ãªmio": 4642,
      "untos": 4643,
      "Ġempreend": 4644,
      "Ġfran": 4645,
      "ĠInc": 4646,
      "ÃŃbl": 4647,
      "americ": 4648,
      "Ġvolume": 4649,
      "Ġkm": 4650,
      "Ġinver": 4651,
      "Ã©rios": 4652,
      "ĠPesso": 4653,
      "ĠnotÃŃcias": 4654,
      "udio": 4655,
      "mina": 4656,
      "ilizaÃ§Ã£o": 4657,
      "ĠpolÃŃticos": 4658,
      "Ġsequ": 4659,
      "Ġdificuldade": 4660,
      "Ġprejud": 4661,
      "Ġroupas": 4662,
      "Ġreduzir": 4663,
      "Ġtive": 4664,
      "ĠLuiz": 4665,
      "Ġdepend": 4666,
      "tudo": 4667,
      "letas": 4668,
      "Ġfizeram": 4669,
      "UR": 4670,
      "ĠPresidente": 4671,
      "wit": 4672,
      "isto": 4673,
      "ĠespaÃ§os": 4674,
      "Agora": 4675,
      "estar": 4676,
      "Ġzona": 4677,
      "rog": 4678,
      "Ġred": 4679,
      "Ġpul": 4680,
      "ĠprincÃŃpio": 4681,
      "Ġcarta": 4682,
      "ĠBat": 4683,
      "Ġrevista": 4684,
      "ĠMundial": 4685,
      "Ġextremamente": 4686,
      "ApÃ³s": 4687,
      "ĠHist": 4688,
      "ÃŃdas": 4689,
      "jec": 4690,
      "ĠCosta": 4691,
      "Ġdeputado": 4692,
      "ndos": 4693,
      "Ġaplicativo": 4694,
      "Ġans": 4695,
      "Ġdedic": 4696,
      "Ġmovimentos": 4697,
      "Ġperfil": 4698,
      "pare": 4699,
      "23": 4700,
      "issÃµes": 4701,
      "Ġst": 4702,
      "igas": 4703,
      "Ġbreve": 4704,
      "Ġrelacionamento": 4705,
      "ĠvitÃ³ria": 4706,
      "Ġprazer": 4707,
      "Ġvoc": 4708,
      "Ġviu": 4709,
      "just": 4710,
      "hone": 4711,
      "Ġsobrev": 4712,
      "Ġ90": 4713,
      "elizmente": 4714,
      "Ġpedir": 4715,
      "Ġdestes": 4716,
      "ardim": 4717,
      "ĠDel": 4718,
      "Ġpossibil": 4719,
      "ĠportuguÃªs": 4720,
      "nes": 4721,
      "peza": 4722,
      "itÃ¡ria": 4723,
      "ĠRos": 4724,
      "Ġbuscar": 4725,
      "Ġvaz": 4726,
      "ĠPat": 4727,
      "ĠDireito": 4728,
      "ĠSP": 4729,
      "Ġartigos": 4730,
      "ismos": 4731,
      "Ġvisual": 4732,
      "porto": 4733,
      "ĠcÃ©l": 4734,
      "ĠDef": 4735,
      "Conf": 4736,
      "inados": 4737,
      "adoras": 4738,
      "ĠInternacional": 4739,
      "vent": 4740,
      "Ġbara": 4741,
      "Ġconhecida": 4742,
      "ys": 4743,
      "ĠGe": 4744,
      "Ġsintomas": 4745,
      "Ġassegu": 4746,
      "ĠCast": 4747,
      "Ġtiveram": 4748,
      "Ġdesap": 4749,
      "ĠespÃŃrito": 4750,
      "Ol": 4751,
      "Essa": 4752,
      "ĠdistÃ¢ncia": 4753,
      "Ġjogador": 4754,
      "Ġpergunta": 4755,
      "ĠanÃº": 4756,
      "estrutura": 4757,
      "Ġcasal": 4758,
      "udes": 4759,
      "Ġvagas": 4760,
      "tom": 4761,
      "ĠsensaÃ§Ã£o": 4762,
      "Ġcarne": 4763,
      "heÃ§a": 4764,
      "Ġwww": 4765,
      "rativo": 4766,
      "Ġrecebe": 4767,
      "Ġconsol": 4768,
      "rgan": 4769,
      "inÃ¡ria": 4770,
      "Ġban": 4771,
      "Ġpretende": 4772,
      "gl": 4773,
      "ĠTrabalho": 4774,
      "Ġment": 4775,
      "ĠmÃ©todo": 4776,
      "Ġanimal": 4777,
      "Ġsabia": 4778,
      "mart": 4779,
      "Ġcurios": 4780,
      "ĠexecuÃ§Ã£o": 4781,
      "Ġinvestimentos": 4782,
      "ĠprisÃ£o": 4783,
      "icada": 4784,
      "Ġjuntos": 4785,
      "ĠComissÃ£o": 4786,
      "ĠÃ´n": 4787,
      "Ġcandidato": 4788,
      "teis": 4789,
      "Ãºn": 4790,
      "ĠrÃ¡pida": 4791,
      "ĠregiÃµes": 4792,
      "racia": 4793,
      "ĠAra": 4794,
      "Ġdeixando": 4795,
      "pero": 4796,
      "ĠEcon": 4797,
      "ĠexposiÃ§Ã£o": 4798,
      "Ġqueda": 4799,
      "Esse": 4800,
      "ĠGrupo": 4801,
      "ĠsaudÃ¡vel": 4802,
      "pia": 4803,
      "ĠAmaz": 4804,
      "entares": 4805,
      "ĠBrasÃŃlia": 4806,
      "ĠTh": 4807,
      "Ġregistro": 4808,
      "Ġontem": 4809,
      "ilma": 4810,
      "Ġverdadeiro": 4811,
      "Ġacredita": 4812,
      "sou": 4813,
      "Ã¡tis": 4814,
      "ificada": 4815,
      "ĠAng": 4816,
      "Ġtratar": 4817,
      "lig": 4818,
      "xe": 4819,
      "anela": 4820,
      "Ġsegue": 4821,
      "Ġren": 4822,
      "Ġajust": 4823,
      "ÃŃstico": 4824,
      "Ġfamiliar": 4825,
      "tica": 4826,
      "ĠEng": 4827,
      "Ġfeitos": 4828,
      "iosos": 4829,
      "Ġrev": 4830,
      "ilhÃ£o": 4831,
      "geiros": 4832,
      "ĠFin": 4833,
      "ĠMus": 4834,
      "ĠresponsÃ¡veis": 4835,
      "uva": 4836,
      "Ġveg": 4837,
      "Ġdesafio": 4838,
      "ĠMerc": 4839,
      "Ġcai": 4840,
      "ĠexpressÃ£o": 4841,
      "IP": 4842,
      "ĠÃ³rgÃ£os": 4843,
      "uno": 4844,
      "Ġlevou": 4845,
      "onas": 4846,
      "Ã©rias": 4847,
      "UT": 4848,
      "Ġroub": 4849,
      "Ġpesquisas": 4850,
      "ĠseleÃ§Ã£o": 4851,
      "Ġpior": 4852,
      "Ġintro": 4853,
      "Ġitens": 4854,
      "Ġarmazen": 4855,
      "Ġvere": 4856,
      "ĠCopa": 4857,
      "ĠOliveira": 4858,
      "Foi": 4859,
      "ĠhÃ¡b": 4860,
      "bre": 4861,
      "Ã´nica": 4862,
      "Ġformato": 4863,
      "ĠdecisÃµes": 4864,
      "ĠfÃ¡": 4865,
      "ĠdÃŃ": 4866,
      "Ġemo": 4867,
      "ĠlÃŃngua": 4868,
      "xa": 4869,
      "Ġselecion": 4870,
      "ĠforÃ§as": 4871,
      "Ġerro": 4872,
      "Ġtriste": 4873,
      "ĠNeste": 4874,
      "ivel": 4875,
      "uel": 4876,
      "ĠMarc": 4877,
      "Ã³m": 4878,
      "ĠgÃªn": 4879,
      "rÃ¡fico": 4880,
      "Ġcomplem": 4881,
      "Ġcad": 4882,
      "Ġcomuns": 4883,
      "olh": 4884,
      "Ġgord": 4885,
      "Ġcanal": 4886,
      "Ġlinhas": 4887,
      "Ã¡cio": 4888,
      "ĠdÃ©cada": 4889,
      "Ġconversa": 4890,
      "Ġcriado": 4891,
      "Ġcozinha": 4892,
      "ĠÃ¡rvo": 4893,
      "rupÃ§Ã£o": 4894,
      "Ġfalando": 4895,
      "Ã¢nico": 4896,
      "IB": 4897,
      "ĠdecoraÃ§Ã£o": 4898,
      "ĠjustiÃ§a": 4899,
      "inada": 4900,
      "ĠOp": 4901,
      "Ġguard": 4902,
      "Ã¡stico": 4903,
      "ĠHum": 4904,
      "ĠclÃŃn": 4905,
      "rif": 4906,
      "Ã¢ncer": 4907,
      "ĠRoc": 4908,
      "Ġterr": 4909,
      "Ġmotiv": 4910,
      "Ġnormalmente": 4911,
      "ĠmunicÃŃpios": 4912,
      "Ġpassando": 4913,
      "orar": 4914,
      "Ġverde": 4915,
      "ĠtendÃªncia": 4916,
      "CA": 4917,
      "stru": 4918,
      "ĠbebÃª": 4919,
      "ĠBen": 4920,
      "ĠCruz": 4921,
      "ograf": 4922,
      "Ġaborda": 4923,
      "Ġencam": 4924,
      "Ġtermo": 4925,
      "ĠPaul": 4926,
      "ĠhistÃ³rico": 4927,
      "ĠEspÃŃrito": 4928,
      "uros": 4929,
      "Ġrod": 4930,
      "Ġdescobrir": 4931,
      "iros": 4932,
      "Ġcompras": 4933,
      "Ġconforto": 4934,
      "ĠEdu": 4935,
      "SS": 4936,
      "Ġcanc": 4937,
      "Ġinternacionais": 4938,
      "ĠCamp": 4939,
      "Ġriscos": 4940,
      "ĠVeja": 4941,
      "Do": 4942,
      "cular": 4943,
      "ĠmÃ©dicos": 4944,
      "80": 4945,
      "ĠÃ³leo": 4946,
      "ui": 4947,
      "ti": 4948,
      "ĠcomÃ©rcio": 4949,
      "Ġcirurg": 4950,
      "Ġadm": 4951,
      "Ġdesej": 4952,
      "Ġvidas": 4953,
      "Ġgel": 4954,
      "ÃŃna": 4955,
      "ĠChina": 4956,
      "ĠAlex": 4957,
      "aixon": 4958,
      "Ġesperar": 4959,
      "ĠFernando": 4960,
      "edes": 4961,
      "):": 4962,
      "inais": 4963,
      "anal": 4964,
      "Ġcarros": 4965,
      "Ġisol": 4966,
      "ĠevoluÃ§Ã£o": 4967,
      "indows": 4968,
      "ĠpÃ¡ginas": 4969,
      "Ġconquist": 4970,
      "Ġdemo": 4971,
      "ĠÃ¢mb": 4972,
      "ĠGal": 4973,
      "Ġaparece": 4974,
      "Mar": 4975,
      "ĠendereÃ§o": 4976,
      "Ġvice": 4977,
      "Ġaus": 4978,
      "Ġfuncional": 4979,
      "Ġpassagem": 4980,
      "ĠNO": 4981,
      "Ġcru": 4982,
      "erante": 4983,
      "Ġresolver": 4984,
      "Ã¢nica": 4985,
      "Ġplanejamento": 4986,
      "Ġcontou": 4987,
      "Ġadqu": 4988,
      "ĠinÃºm": 4989,
      "Ġcomigo": 4990,
      "Ġregime": 4991,
      "Ġles": 4992,
      "Ġconstante": 4993,
      "Ġefica": 4994,
      "Ġreforma": 4995,
      "Ġcorte": 4996,
      "ÃŃbrio": 4997,
      "Ġreb": 4998,
      "Ġesf": 4999,
      "Ġeconom": 5000,
      "tam": 5001,
      "como": 5002,
      "fas": 5003,
      "Ġconstruir": 5004,
      "Ġpropriedade": 5005,
      "ulgar": 5006,
      "Ġhomen": 5007,
      "ĠnÃºmeros": 5008,
      "Ġacompanha": 5009,
      "Ġvisu": 5010,
      "ĠVale": 5011,
      "ĠIl": 5012,
      "Ġoito": 5013,
      "Ġcabelos": 5014,
      "Ġproib": 5015,
      "Ġconsumidor": 5016,
      "Ġaberto": 5017,
      "Ġnaveg": 5018,
      "hat": 5019,
      "terior": 5020,
      "anhas": 5021,
      "odas": 5022,
      "Ġshow": 5023,
      "Ġavent": 5024,
      "Ġetapa": 5025,
      "Ġteu": 5026,
      "Ġmetade": 5027,
      "ÃŃtulos": 5028,
      "ĠinstalaÃ§Ã£o": 5029,
      "Ġlonga": 5030,
      "ĠalteraÃ§Ãµes": 5031,
      "ances": 5032,
      "Ġbei": 5033,
      "ĠfÃŃsico": 5034,
      "iando": 5035,
      "ĠPaÃŃs": 5036,
      "Ġvive": 5037,
      "Ġacompanhar": 5038,
      "ĠHosp": 5039,
      "Ġusa": 5040,
      "Ã³lica": 5041,
      "Ġinteresses": 5042,
      "Ġuniverso": 5043,
      "ĠesforÃ§o": 5044,
      "Ġfornece": 5045,
      "Ġperspec": 5046,
      "Ġhe": 5047,
      "Ġentend": 5048,
      "redientes": 5049,
      ".,": 5050,
      "Ġinfra": 5051,
      "Ġemerg": 5052,
      "itora": 5053,
      "rial": 5054,
      "ĠquÃŃm": 5055,
      "Ġapos": 5056,
      "Ġresponder": 5057,
      "Ġ31": 5058,
      "load": 5059,
      "Ġambiental": 5060,
      "EG": 5061,
      "Ġlin": 5062,
      "ĠÃ´nibus": 5063,
      "ĠMac": 5064,
      "Ġcombate": 5065,
      "Ġprovavelmente": 5066,
      "iba": 5067,
      "Ġmadeira": 5068,
      "Ġ2020": 5069,
      "Ġpad": 5070,
      "Ġidentificar": 5071,
      "ĠSh": 5072,
      "Ġcard": 5073,
      "Per": 5074,
      "ĠprogramaÃ§Ã£o": 5075,
      "Ġobjeto": 5076,
      "Ġdizendo": 5077,
      "umes": 5078,
      "Ġoferta": 5079,
      "enhora": 5080,
      "ĠnecessÃ¡ria": 5081,
      "Ġdan": 5082,
      "Ġservidores": 5083,
      "Ġparar": 5084,
      "ordar": 5085,
      "ĠCha": 5086,
      "ĠPM": 5087,
      "Ġmilhares": 5088,
      "Ġtransmit": 5089,
      "27": 5090,
      "Ġbanh": 5091,
      "Ġcober": 5092,
      "ĠPT": 5093,
      "Ġtera": 5094,
      "vante": 5095,
      "Ã¡cia": 5096,
      "Ġprocurar": 5097,
      "Ġretorn": 5098,
      "ritos": 5099,
      "Ġglobal": 5100,
      "ultos": 5101,
      "Ġplaneta": 5102,
      "Ġmeia": 5103,
      "Ġsobretudo": 5104,
      "ĠhorÃ¡rio": 5105,
      "aixÃ£o": 5106,
      "ĠMinas": 5107,
      "ĠvÃŃtima": 5108,
      "99": 5109,
      "erado": 5110,
      "bit": 5111,
      "ject": 5112,
      "Ã©st": 5113,
      "Ã¢ns": 5114,
      "ĠHot": 5115,
      "ĠnegociaÃ§Ã£o": 5116,
      "alizados": 5117,
      "leia": 5118,
      "ĠMundo": 5119,
      "Ġouvi": 5120,
      "Ġazul": 5121,
      "Ġ#": 5122,
      "ĠSÃ©": 5123,
      "Ġtua": 5124,
      "Ġcalor": 5125,
      "ĠdiscussÃ£o": 5126,
      "ĠpublicaÃ§Ã£o": 5127,
      "ĠMesmo": 5128,
      "ĠDesenvolvimento": 5129,
      "Ġembal": 5130,
      "Ġcomida": 5131,
      "ĠCorre": 5132,
      "ĠFranÃ§a": 5133,
      "Ġgarantia": 5134,
      "ĠfÃ³r": 5135,
      "Ġmoral": 5136,
      "ENTO": 5137,
      "Ġbic": 5138,
      "Ġpraticamente": 5139,
      "Ainda": 5140,
      "ariam": 5141,
      "Ġpensa": 5142,
      "Ġprovas": 5143,
      "osco": 5144,
      "ĠciÃªncia": 5145,
      "ĠPrefeitura": 5146,
      "Ġesquerda": 5147,
      "encion": 5148,
      "Ġmotivos": 5149,
      "ĠresistÃªncia": 5150,
      "Ġdefic": 5151,
      "enharia": 5152,
      "endas": 5153,
      "01": 5154,
      "rael": 5155,
      "onal": 5156,
      "Ġlhes": 5157,
      "Ġjo": 5158,
      "ĠdisposiÃ§Ã£o": 5159,
      "Ġvira": 5160,
      "riga": 5161,
      "Ġfamiliares": 5162,
      "Ġperfeito": 5163,
      "pat": 5164,
      "ak": 5165,
      "ĠeconÃ´mica": 5166,
      "EntÃ£o": 5167,
      "03": 5168,
      "ares": 5169,
      "Ġfront": 5170,
      "MS": 5171,
      "ĠMont": 5172,
      "Ch": 5173,
      "Ġobjetos": 5174,
      "Ġciclo": 5175,
      "formaÃ§Ãµes": 5176,
      "TE": 5177,
      "ĠÃ¢mbito": 5178,
      "Ġalmo": 5179,
      "pressÃ£o": 5180,
      "presidente": 5181,
      "ĠterÃ£o": 5182,
      "ĠpossÃŃveis": 5183,
      "HO": 5184,
      "ĠmÃ¡quina": 5185,
      "ĠprincÃŃpios": 5186,
      "RAS": 5187,
      "Ġresist": 5188,
      "Ġerros": 5189,
      "Ġapaixon": 5190,
      "duaÃ§Ã£o": 5191,
      "essem": 5192,
      "Ġdieta": 5193,
      "ĠBanco": 5194,
      "Ġinvestir": 5195,
      "Ġcompon": 5196,
      "ts": 5197,
      "Ġinim": 5198,
      "26": 5199,
      "Ġfech": 5200,
      "Ġandar": 5201,
      "ĠPARA": 5202,
      "Ġbens": 5203,
      "hando": 5204,
      "Ġalem": 5205,
      "ĠVi": 5206,
      "Ġconhece": 5207,
      "Ġfen": 5208,
      "ĠMal": 5209,
      "Ġterre": 5210,
      "ĠVol": 5211,
      "ĠinvestigaÃ§Ã£o": 5212,
      "ĠCP": 5213,
      "ĠCongresso": 5214,
      "Ġviz": 5215,
      "Ã¢mica": 5216,
      "Ġfinanceira": 5217,
      "Ġfique": 5218,
      "Ġtextos": 5219,
      "Ã¢nsito": 5220,
      "Ġpros": 5221,
      "wnload": 5222,
      "Ã¡logo": 5223,
      "Â°": 5224,
      "ofia": 5225,
      "vamos": 5226,
      "ÃŃnc": 5227,
      "Ã¡ter": 5228,
      "Ġpodendo": 5229,
      "05": 5230,
      "Ġseres": 5231,
      "Ġrealizadas": 5232,
      "ĠNÃ³s": 5233,
      "Ġrecente": 5234,
      "gada": 5235,
      "Ã´s": 5236,
      "Ġcandidatos": 5237,
      "ĠCrist": 5238,
      "ĠdÃ³": 5239,
      "Ã¡f": 5240,
      "Ġprol": 5241,
      "logia": 5242,
      "Ġderro": 5243,
      "ĠaÃ§Ãºcar": 5244,
      "ung": 5245,
      "Ġdivers": 5246,
      "Ġpermitir": 5247,
      "Ġartic": 5248,
      "Ġquil": 5249,
      "ĠConstituiÃ§Ã£o": 5250,
      "ĠSistema": 5251,
      "itaÃ§Ãµes": 5252,
      "Ġdesafios": 5253,
      "Car": 5254,
      "Ġautoridades": 5255,
      "sex": 5256,
      "Ġapost": 5257,
      "Ã§ada": 5258,
      "comp": 5259,
      "Ġquerer": 5260,
      "Ġvid": 5261,
      "rico": 5262,
      "Ġexterior": 5263,
      "Ġmilitar": 5264,
      "cara": 5265,
      "ĠlÃŃqu": 5266,
      "Ġaproveitar": 5267,
      "Ġlimpeza": 5268,
      "Ġprocedimento": 5269,
      "ĠClu": 5270,
      "ĠdistribuiÃ§Ã£o": 5271,
      "Ġclima": 5272,
      "Ã©dia": 5273,
      "elar": 5274,
      "cl": 5275,
      "Ġperguntas": 5276,
      "old": 5277,
      "Ġabandon": 5278,
      "Ġtemperatura": 5279,
      "ĠoperaÃ§Ãµes": 5280,
      "Am": 5281,
      "ley": 5282,
      "itadas": 5283,
      "Ġidentidade": 5284,
      "Ġlook": 5285,
      "Ġ?": 5286,
      "ife": 5287,
      "ĠmÃŃdia": 5288,
      "orpo": 5289,
      "ĠAlem": 5290,
      "ania": 5291,
      "ĠeleiÃ§Ãµes": 5292,
      "Ġtecnologias": 5293,
      "ogos": 5294,
      "ĠFil": 5295,
      "ney": 5296,
      "Ãºc": 5297,
      "ĠcomeÃ§o": 5298,
      "ĠesperanÃ§a": 5299,
      "Ġdemanda": 5300,
      "lay": 5301,
      "ĠBl": 5302,
      "ĠÃĢ": 5303,
      "Ġescolar": 5304,
      "Ġrio": 5305,
      "ĠsessÃ£o": 5306,
      "ĠQUE": 5307,
      "Ġretor": 5308,
      "Ġsabem": 5309,
      "ĠalcanÃ§ar": 5310,
      "Ġcast": 5311,
      "Ġyou": 5312,
      "Ġconvenc": 5313,
      "ĠTecn": 5314,
      "ĠPos": 5315,
      "ĠcÃ©u": 5316,
      "Ġmarido": 5317,
      "Ġfortes": 5318,
      "Ġdefe": 5319,
      "Ġestados": 5320,
      "ĠBrasileira": 5321,
      "acia": 5322,
      "ĠEra": 5323,
      "ole": 5324,
      "Ġparal": 5325,
      "olis": 5326,
      "Ġverdadeira": 5327,
      "Ġwith": 5328,
      "Ġassistir": 5329,
      "ĠCaso": 5330,
      "ĠDilma": 5331,
      "Ġeurope": 5332,
      "ĠsecretÃ¡rio": 5333,
      "itares": 5334,
      "Ġsonhos": 5335,
      "ĠcarÃ¡ter": 5336,
      "Ġdizem": 5337,
      "Ġleis": 5338,
      "ÃŃa": 5339,
      "Ġfelicidade": 5340,
      "Ġgarante": 5341,
      "ĠAna": 5342,
      "recer": 5343,
      "Ġfug": 5344,
      "gumas": 5345,
      "Ġevent": 5346,
      "Ġcompromisso": 5347,
      "amais": 5348,
      "ĠRua": 5349,
      "ĠGr": 5350,
      "Ġimplant": 5351,
      "Ġparecer": 5352,
      "Ġ...": 5353,
      "ĠverÃ£o": 5354,
      "hou": 5355,
      "Ã³stico": 5356,
      "Ġindividual": 5357,
      "08": 5358,
      "ĠpromoÃ§Ã£o": 5359,
      "Ġmensagens": 5360,
      "ĠIsto": 5361,
      "ÃŃdio": 5362,
      "ĠApesar": 5363,
      "enÃ§Ãµes": 5364,
      "izagem": 5365,
      "Ġtestem": 5366,
      "Ġassass": 5367,
      "ĠPR": 5368,
      "Ġprecisar": 5369,
      "Ġchama": 5370,
      "28": 5371,
      "Ġteste": 5372,
      "Ġrit": 5373,
      "ĠFaz": 5374,
      "ĠIr": 5375,
      "Ġdeleg": 5376,
      "ĠAB": 5377,
      "atar": 5378,
      "Ġsinais": 5379,
      "ĠrelatÃ³rio": 5380,
      "Ġcontam": 5381,
      "Ġenx": 5382,
      "Ġ35": 5383,
      "Ġentidades": 5384,
      "ĠRib": 5385,
      "Ġlinguagem": 5386,
      "Ġdireto": 5387,
      "ĠAqu": 5388,
      "09": 5389,
      "04": 5390,
      "land": 5391,
      "ides": 5392,
      "Ġdebate": 5393,
      "ĠDav": 5394,
      "Ġgordura": 5395,
      "gr": 5396,
      "Ġnormas": 5397,
      "Ġpublicado": 5398,
      "Ġilust": 5399,
      "ĠgraÃ§a": 5400,
      "Ġpronto": 5401,
      "Ãªnio": 5402,
      "Ã©n": 5403,
      "dem": 5404,
      "Ġsolo": 5405,
      "Ġumas": 5406,
      "ografia": 5407,
      "arial": 5408,
      "Ġ2007": 5409,
      "ĠVila": 5410,
      "Ġfalou": 5411,
      "ĠNesse": 5412,
      "Ġutilizados": 5413,
      "Ġprevis": 5414,
      "ĠcÃ¡l": 5415,
      "Ġadqui": 5416,
      "Ġflores": 5417,
      "ĠlegislaÃ§Ã£o": 5418,
      "Ġretorno": 5419,
      "Ġcolor": 5420,
      "ĠAqui": 5421,
      "ĠDiv": 5422,
      "Ġsupera": 5423,
      "Ġtornando": 5424,
      "Ġinclui": 5425,
      "ĠnecessÃ¡rios": 5426,
      "ĠHospital": 5427,
      "Ġsubs": 5428,
      "ĠCentral": 5429,
      "ĠÃį": 5430,
      "Ġantigo": 5431,
      "MO": 5432,
      "Ġtu": 5433,
      "Ġautomat": 5434,
      "Ġgerar": 5435,
      "Ġesteve": 5436,
      "Ġesquec": 5437,
      "ĠEurope": 5438,
      "pot": 5439,
      "Ġespecialistas": 5440,
      "Ġpun": 5441,
      "ĠirmÃ£o": 5442,
      "guei": 5443,
      "Mu": 5444,
      "Ġtarefa": 5445,
      "vendo": 5446,
      "ĠgrÃ¡tis": 5447,
      "ĠchÃ£o": 5448,
      "ibliotec": 5449,
      "Ġdeterminado": 5450,
      "ivar": 5451,
      "veja": 5452,
      "ĠHen": 5453,
      "Ġacel": 5454,
      "Ġdevemos": 5455,
      "rup": 5456,
      "Ġthat": 5457,
      "Ġpoliciais": 5458,
      "Ġproduzir": 5459,
      "Ġtrou": 5460,
      "Ġlinda": 5461,
      "Ġagentes": 5462,
      "ĠPorque": 5463,
      "ensÃµes": 5464,
      "Ġconsigo": 5465,
      "ceis": 5466,
      "Ġchegada": 5467,
      "pet": 5468,
      "Ġmecan": 5469,
      "ĠSho": 5470,
      "Ġacum": 5471,
      "cont": 5472,
      "Ġfacilmente": 5473,
      "Ġconsumidores": 5474,
      "ĠLib": 5475,
      "Ġenviar": 5476,
      "ĠorganizaÃ§Ãµes": 5477,
      "king": 5478,
      "ĠSeguranÃ§a": 5479,
      "ĠÃ³rgÃ£o": 5480,
      "Ġia": 5481,
      "Ġcuja": 5482,
      "Ġness": 5483,
      "ight": 5484,
      "witter": 5485,
      "ĠEduardo": 5486,
      "Ġsegre": 5487,
      "Ãļ": 5488,
      "dou": 5489,
      "Ġescrit": 5490,
      "oft": 5491,
      "Ġnovidades": 5492,
      "Ġserve": 5493,
      "formas": 5494,
      "ĠgraÃ§as": 5495,
      "Ġsuperf": 5496,
      "ĠJu": 5497,
      "Ġotim": 5498,
      "Ġfabrica": 5499,
      "entam": 5500,
      "Ġartista": 5501,
      "Ġrequer": 5502,
      "Ġplant": 5503,
      "pr": 5504,
      "Ġbola": 5505,
      "Ġdesapare": 5506,
      "Ġgrau": 5507,
      "ĠWindows": 5508,
      "Ġconcurso": 5509,
      "Ġinstru": 5510,
      "Ġâ": 5511,
      "29": 5512,
      "ĠDist": 5513,
      "ornal": 5514,
      "Ġcujo": 5515,
      "Ġdanos": 5516,
      "ĠterritÃ³rio": 5517,
      "ĠLat": 5518,
      "Ġartistas": 5519,
      "ADO": 5520,
      "atÃ³ria": 5521,
      "Ġtit": 5522,
      "ĠPC": 5523,
      "ĠcÃ¢ncer": 5524,
      "Ġby": 5525,
      "ish": 5526,
      "ste": 5527,
      "Ġcena": 5528,
      "Ġlabora": 5529,
      "Ãķ": 5530,
      "Ġtivesse": 5531,
      "ĠON": 5532,
      "ĠIta": 5533,
      "ĠconteÃºdos": 5534,
      "ĠestratÃ©gias": 5535,
      "Ġmanda": 5536,
      "ĠcÃ©lulas": 5537,
      "Ġdrogas": 5538,
      "ĠprÃ³prias": 5539,
      "icina": 5540,
      "ĠpreocupaÃ§Ã£o": 5541,
      "Ġeuros": 5542,
      "Ġprimeiras": 5543,
      "Ġrequis": 5544,
      "ĠexercÃŃcios": 5545,
      "Ġequipa": 5546,
      "Ġconced": 5547,
      "Ġescrita": 5548,
      "Ã©ticos": 5549,
      "anÃ§o": 5550,
      "rb": 5551,
      "Ġcred": 5552,
      "Ġsta": 5553,
      "Ġsabor": 5554,
      "Ġestuda": 5555,
      "etal": 5556,
      "Ġensin": 5557,
      "Ġacidente": 5558,
      "eratura": 5559,
      "Ġcrio": 5560,
      "ĠST": 5561,
      "ĠrecuperaÃ§Ã£o": 5562,
      "ĠSo": 5563,
      "ĠAv": 5564,
      "Ġdiss": 5565,
      "ĠAN": 5566,
      "ĠincrÃŃvel": 5567,
      "Ġorganismo": 5568,
      "Ġdireita": 5569,
      "Ġusados": 5570,
      "Ġatingir": 5571,
      "ĠUnivers": 5572,
      "Ġconhecimentos": 5573,
      "IZ": 5574,
      "ĠOrgan": 5575,
      "Ġnacionais": 5576,
      "item": 5577,
      "ĠBel": 5578,
      "ĠInte": 5579,
      "VA": 5580,
      "embleia": 5581,
      "ĠmÃºsicas": 5582,
      "Ġprost": 5583,
      "07": 5584,
      "Ġaproximadamente": 5585,
      "Ġfilos": 5586,
      "ĠPortugu": 5587,
      "ĠnotÃŃcia": 5588,
      "Ġdiscurso": 5589,
      "Cons": 5590,
      "ium": 5591,
      "Ġexame": 5592,
      "rad": 5593,
      "ĠbenefÃŃcio": 5594,
      "ĠSet": 5595,
      "Ġpreso": 5596,
      "Ġpatrim": 5597,
      "Ġencaminh": 5598,
      "icardo": 5599,
      "ĠvÃ¡l": 5600,
      "06": 5601,
      "isp": 5602,
      "An": 5603,
      "ĠÃºtil": 5604,
      "tada": 5605,
      "Ġconex": 5606,
      "Ġfatos": 5607,
      "rÃ¡fica": 5608,
      "bras": 5609,
      "ones": 5610,
      "Ġmovim": 5611,
      "Ġinteiro": 5612,
      "ĠOn": 5613,
      "zinha": 5614,
      "ĠDom": 5615,
      "Ġservir": 5616,
      "Ġfontes": 5617,
      "Ġrotina": 5618,
      "Ġinterna": 5619,
      "gio": 5620,
      "ĠEns": 5621,
      "Ġfinanceiro": 5622,
      "Ġganhou": 5623,
      "Ġprocedimentos": 5624,
      "ka": 5625,
      "Ġpobre": 5626,
      "Ġaparelho": 5627,
      "Ġpred": 5628,
      "Ġcoleg": 5629,
      "ĠHe": 5630,
      "Ġentidade": 5631,
      "Ġarquitet": 5632,
      "Ġsaiba": 5633,
      "Ġmoradores": 5634,
      "ĠfÃ©rias": 5635,
      "Ġsente": 5636,
      "Ġpropriet": 5637,
      "emÃ¡tica": 5638,
      "Ġtestes": 5639,
      "ĠMod": 5640,
      "ĠMP": 5641,
      "Ġocorreu": 5642,
      "ĠRed": 5643,
      "issa": 5644,
      "Durante": 5645,
      "Ġrevol": 5646,
      "tagon": 5647,
      "Ġenvio": 5648,
      "Ġdisco": 5649,
      "ĠÃ³tima": 5650,
      "Ġpropostas": 5651,
      "Ġdescon": 5652,
      "Ã³gico": 5653,
      "Ġguarda": 5654,
      "Ġfins": 5655,
      "Ġcertamente": 5656,
      "ĠTom": 5657,
      "Ġlindo": 5658,
      "ĠMuito": 5659,
      "ĠdÃ£o": 5660,
      "ĠFilho": 5661,
      "Ġmunicipal": 5662,
      "Ġteoria": 5663,
      "ÃŃram": 5664,
      "Ġbanho": 5665,
      "esto": 5666,
      "Ġafinal": 5667,
      "SE": 5668,
      "osos": 5669,
      "rativos": 5670,
      "OC": 5671,
      "izadas": 5672,
      "ky": 5673,
      "Ġespiritual": 5674,
      "grafo": 5675,
      "Ġamea": 5676,
      "ĠCada": 5677,
      "Ġataque": 5678,
      "Ġrelacionados": 5679,
      "ifique": 5680,
      "Ġmante": 5681,
      "Ġcausar": 5682,
      "ĠdivulgaÃ§Ã£o": 5683,
      "Ã¢nea": 5684,
      "ecÃ§Ã£o": 5685,
      "ĠdenÃº": 5686,
      "tod": 5687,
      "ĠCON": 5688,
      "Ġhaja": 5689,
      "Ġmesmas": 5690,
      "Apesar": 5691,
      "Ġpisc": 5692,
      "ĠPortanto": 5693,
      "pri": 5694,
      "cidos": 5695,
      "ĠcomentÃ¡rio": 5696,
      "Ġapar": 5697,
      "unha": 5698,
      "aiba": 5699,
      "Ġpassos": 5700,
      "Ġsentimentos": 5701,
      "orado": 5702,
      "Ġtantas": 5703,
      "Ġsabemos": 5704,
      "Ġ196": 5705,
      "Ġfazia": 5706,
      "Ġassuntos": 5707,
      "Ġadic": 5708,
      "otas": 5709,
      "Ġantiga": 5710,
      "Ġposicion": 5711,
      "ĠcompetiÃ§Ã£o": 5712,
      "Ġestudar": 5713,
      "Neste": 5714,
      "Ġproteger": 5715,
      "Ġcedo": 5716,
      "Ġtreinamento": 5717,
      "ÃķES": 5718,
      "Ġreserva": 5719,
      "Ġmoto": 5720,
      "ĠDi": 5721,
      "Ġvisitar": 5722,
      "Ġterceira": 5723,
      "Ġveja": 5724,
      "ĠGab": 5725,
      "Sim": 5726,
      "Ġaspecto": 5727,
      "olo": 5728,
      "ĠCria": 5729,
      "ĠtÃ©cnicos": 5730,
      "Ġacabar": 5731,
      "ĠintenÃ§Ã£o": 5732,
      "Ġchance": 5733,
      "Ġjuiz": 5734,
      "ĠPere": 5735,
      "Ġestadual": 5736,
      "Ġfrio": 5737,
      "ĠWeb": 5738,
      "ĠEstadual": 5739,
      "ĠBahia": 5740,
      "ĠPesqu": 5741,
      "Ġcarga": 5742,
      "Ġpodia": 5743,
      "rang": 5744,
      "Ġcheio": 5745,
      "Ġmenores": 5746,
      "ĠJe": 5747,
      "Ġgovernador": 5748,
      "Ġrecentemente": 5749,
      "icl": 5750,
      "Ġdica": 5751,
      "Ġcama": 5752,
      "ÃŃssimo": 5753,
      "Ġpassam": 5754,
      "Ġina": 5755,
      "Ġmam": 5756,
      "arg": 5757,
      "Ġarquivo": 5758,
      "Ġsentimento": 5759,
      "vador": 5760,
      "45": 5761,
      "Ġroupa": 5762,
      "Ġouro": 5763,
      "Ġpossibilidades": 5764,
      "Ġhumanidade": 5765,
      "ya": 5766,
      "Ġvantagens": 5767,
      "Todos": 5768,
      "Ġflex": 5769,
      "Ġ500": 5770,
      "CE": 5771,
      "ĠFam": 5772,
      "lares": 5773,
      "Ġresto": 5774,
      "ulaÃ§Ãµes": 5775,
      "Ġautores": 5776,
      "%.": 5777,
      "Ġrespostas": 5778,
      "ĠHo": 5779,
      "IDADE": 5780,
      "Ġterem": 5781,
      "ĠsuperfÃŃc": 5782,
      "ĠProjeto": 5783,
      "ĠFel": 5784,
      "Ġjuros": 5785,
      "Ġperigos": 5786,
      "ĠGestÃ£o": 5787,
      "Ġsenhor": 5788,
      "Ġarquivos": 5789,
      "Ġredor": 5790,
      "ĠNossa": 5791,
      "ĠimpossÃŃvel": 5792,
      "Ġfib": 5793,
      "Ġvantagem": 5794,
      "arn": 5795,
      "ĠpropÃ³sito": 5796,
      "agram": 5797,
      "ĠBrasileiro": 5798,
      "Ġvender": 5799,
      "Ġamo": 5800,
      "Ġlimite": 5801,
      "ĠchÃ¡": 5802,
      "Ġreconhecimento": 5803,
      "Ġsaiu": 5804,
      "ker": 5805,
      "Ġquente": 5806,
      "ĠAP": 5807,
      "Ġreflet": 5808,
      "HA": 5809,
      "Ġjamais": 5810,
      "ĠMilitar": 5811,
      "Ġevang": 5812,
      "Ġintegral": 5813,
      "Ġdepende": 5814,
      "ĠirÃ£o": 5815,
      "ĠSte": 5816,
      "Isso": 5817,
      "Ã¡culo": 5818,
      "Ġindependente": 5819,
      "Ġportas": 5820,
      "Ġabsor": 5821,
      "ĠCD": 5822,
      "Ġfinalmente": 5823,
      "Ġprotagon": 5824,
      "Ġbancos": 5825,
      "aixas": 5826,
      "rato": 5827,
      "Ġmilitares": 5828,
      "imar": 5829,
      "Ġcrescer": 5830,
      "EST": 5831,
      "??": 5832,
      "ĠirmÃ£os": 5833,
      "entada": 5834,
      "ple": 5835,
      "tados": 5836,
      "ote": 5837,
      "rac": 5838,
      "Ġusada": 5839,
      "Ã³is": 5840,
      "Ġrepresentantes": 5841,
      "Ġprecisamos": 5842,
      "Ġnasceu": 5843,
      "ĠhipÃ³": 5844,
      "ler": 5845,
      "ĠInter": 5846,
      "Ġrelev": 5847,
      "Ãªut": 5848,
      "Ġenfer": 5849,
      "Ġface": 5850,
      "Ġtecido": 5851,
      "Ġanivers": 5852,
      "ĠPÃºblica": 5853,
      "itamos": 5854,
      "Ġtransfer": 5855,
      "alidades": 5856,
      "ĠAL": 5857,
      "ĠequilÃŃbrio": 5858,
      "ĠAlb": 5859,
      "Ġplantas": 5860,
      "aremos": 5861,
      "NA": 5862,
      "obil": 5863,
      "ĠindivÃŃduo": 5864,
      "ĠGlobo": 5865,
      "ĠsalÃ¡rio": 5866,
      "rama": 5867,
      "olas": 5868,
      "IF": 5869,
      "Ġtenta": 5870,
      "ev": 5871,
      "Ġbrin": 5872,
      "Ġimediatamente": 5873,
      "Ġanteriores": 5874,
      "ĠeconÃ´mico": 5875,
      "Ġanti": 5876,
      "we": 5877,
      "Ġcarreg": 5878,
      "ĠPen": 5879,
      "bar": 5880,
      "ĠnecessÃ¡rias": 5881,
      "ĠRom": 5882,
      "Ġamiga": 5883,
      "Ġvelho": 5884,
      "Ġespanh": 5885,
      "Ġast": 5886,
      "arou": 5887,
      "02": 5888,
      "ĠHor": 5889,
      "Ġparlam": 5890,
      "Ġencer": 5891,
      "Ġpropag": 5892,
      "ices": 5893,
      "Ġlimites": 5894,
      "taÃ§Ãµes": 5895,
      "Ġinformou": 5896,
      "ĠagÃªncia": 5897,
      "Ġtentativa": 5898,
      "Ġharm": 5899,
      "Ġentrou": 5900,
      "Ġmaravilhos": 5901,
      "magem": 5902,
      "Ġdefinir": 5903,
      "igi": 5904,
      "ĠSan": 5905,
      "Ġmascul": 5906,
      "Ġchin": 5907,
      "ĠHom": 5908,
      "Ġinaugu": 5909,
      "Ġchuva": 5910,
      "juÃŃ": 5911,
      "ĠvÃŃtimas": 5912,
      "Ġcompreender": 5913,
      "Ġinser": 5914,
      "Ġatitude": 5915,
      "ĠFal": 5916,
      "Ġcriou": 5917,
      "Ġ=": 5918,
      "Ġcomplex": 5919,
      "ĠcÃ©re": 5920,
      "Ġlembra": 5921,
      "Ġtransformar": 5922,
      "viamente": 5923,
      "Ġambientes": 5924,
      "Ġvirtual": 5925,
      "Ġdesconhec": 5926,
      "The": 5927,
      "Ġrig": 5928,
      "fica": 5929,
      "ĠcidadÃ£os": 5930,
      "Ã¢nia": 5931,
      "ĠÃ³timo": 5932,
      "gram": 5933,
      "SA": 5934,
      "Ġfigura": 5935,
      "Ġgaro": 5936,
      "Ġfaixa": 5937,
      "ĠMul": 5938,
      "Ġvide": 5939,
      "forme": 5940,
      "Ġven": 5941,
      "ĠinfluÃªncia": 5942,
      "Tem": 5943,
      "pping": 5944,
      "ĠDurante": 5945,
      "Ġlidar": 5946,
      "ĠJa": 5947,
      "Ġgrave": 5948,
      "ĠDig": 5949,
      "ono": 5950,
      "Ġcomerciais": 5951,
      "Ġutilizada": 5952,
      "Ġexplicar": 5953,
      "Ġpassaram": 5954,
      "Ġfios": 5955,
      "Ġequipamento": 5956,
      "ĠconclusÃ£o": 5957,
      "imes": 5958,
      "PE": 5959,
      "Ġesposa": 5960,
      "ĠassistÃªncia": 5961,
      "ĠocasiÃ£o": 5962,
      "Ġrever": 5963,
      "mag": 5964,
      "Ġvirtu": 5965,
      "entro": 5966,
      "entina": 5967,
      "ĠTÃ©cn": 5968,
      "uf": 5969,
      "mat": 5970,
      "Ġexemplos": 5971,
      "ĠpadrÃµes": 5972,
      "Ġital": 5973,
      "ĠDesde": 5974,
      "TambÃ©m": 5975,
      "Sobre": 5976,
      "Ġbloc": 5977,
      "ricultura": 5978,
      "ĠJohn": 5979,
      "Ġidos": 5980,
      "Ġestrut": 5981,
      "Ġrestaurante": 5982,
      "IR": 5983,
      "Ġpassada": 5984,
      "Ġviagens": 5985,
      "Ġaquelas": 5986,
      "Ġcaval": 5987,
      "35": 5988,
      "Ġocorrer": 5989,
      "ĠmÃ¡s": 5990,
      "Ã©u": 5991,
      "Ġcapazes": 5992,
      "nia": 5993,
      "Ġinfantil": 5994,
      "Ġtoque": 5995,
      "Ġmedicamentos": 5996,
      "Ġcompartilhar": 5997,
      "Ġfiquei": 5998,
      "Ġcm": 5999,
      "Ġcumprir": 6000,
      "ĠUF": 6001,
      "Ġcorrespond": 6002,
      "ĠmÃ³veis": 6003,
      "ĠCe": 6004,
      "ĠtrÃ¡f": 6005,
      "idÃªncias": 6006,
      "Ġevol": 6007,
      "ĠLima": 6008,
      "Ġpegar": 6009,
      "Ġtrabalhando": 6010,
      "ape": 6011,
      "sonaro": 6012,
      "pol": 6013,
      "Ġprivil": 6014,
      "izando": 6015,
      "Ġparede": 6016,
      "Ġproteg": 6017,
      "Ġtantos": 6018,
      "Ġanalisar": 6019,
      "Ã³nio": 6020,
      "ĠMA": 6021,
      "Ġconceitos": 6022,
      "opera": 6023,
      "osas": 6024,
      "urar": 6025,
      "roid": 6026,
      "Ġvin": 6027,
      "IX": 6028,
      "Ġvinho": 6029,
      "Ġferro": 6030,
      "ĠEspecial": 6031,
      "Ġencontram": 6032,
      "Ġequipes": 6033,
      "Ġdecidiu": 6034,
      "Ġfrut": 6035,
      "ks": 6036,
      "rante": 6037,
      "ĠPoder": 6038,
      "ĠcoleÃ§Ã£o": 6039,
      "Ġapresentado": 6040,
      "hÃ£o": 6041,
      "Ġchefe": 6042,
      "Ġciv": 6043,
      "Ġescrav": 6044,
      "eroporto": 6045,
      "ĠAleg": 6046,
      "ĠaprovaÃ§Ã£o": 6047,
      "der": 6048,
      "ĠtelevisÃ£o": 6049,
      "okies": 6050,
      "ĠmantÃ©m": 6051,
      "formaÃ§Ã£o": 6052,
      "Ġatuais": 6053,
      "Ġcurto": 6054,
      "Ġeficaz": 6055,
      "ĠduraÃ§Ã£o": 6056,
      "Ġnaquele": 6057,
      "Ġpreparar": 6058,
      "ĠAdministraÃ§Ã£o": 6059,
      "ĠorÃ§amento": 6060,
      "Ġdirec": 6061,
      "lim": 6062,
      "Ġiniciar": 6063,
      "Ġvitam": 6064,
      "ĠBranc": 6065,
      "Ġfacto": 6066,
      "naval": 6067,
      "ĠSerra": 6068,
      "ĠAuto": 6069,
      "Ġflorest": 6070,
      "Ġdormir": 6071,
      "Ġquebra": 6072,
      "ĠParque": 6073,
      "Ġsap": 6074,
      "Ġposterior": 6075,
      "Ġreceitas": 6076,
      "ike": 6077,
      "upla": 6078,
      "Ġaumenta": 6079,
      "Ġvolunt": 6080,
      "Ġavi": 6081,
      "ĠNovo": 6082,
      "acto": 6083,
      "ĠAlguns": 6084,
      "Ġsetores": 6085,
      "ĠGerais": 6086,
      "Ġcomunidades": 6087,
      "Ġtarefas": 6088,
      "Ġverificar": 6089,
      "Ġritmo": 6090,
      "Ġlevando": 6091,
      "ĠAlemanha": 6092,
      "ĠEnsino": 6093,
      "ĠDem": 6094,
      "ĠÃ¡guas": 6095,
      "IST": 6096,
      "ĠConfira": 6097,
      "ĠRicardo": 6098,
      "Ġaberta": 6099,
      "frica": 6100,
      "fund": 6101,
      "Ġsinc": 6102,
      "ĠorientaÃ§Ã£o": 6103,
      "Ġadultos": 6104,
      "Ġdaquele": 6105,
      "ĠimpressÃ£o": 6106,
      "ĠinscriÃ§Ã£o": 6107,
      "Ġficaram": 6108,
      "Ġespecialista": 6109,
      "Ġdispositivos": 6110,
      "Ġmagn": 6111,
      "ĠJud": 6112,
      "Ġtradicionais": 6113,
      "Ġsig": 6114,
      "Ġfantas": 6115,
      "ĠMon": 6116,
      "ĠdefiniÃ§Ã£o": 6117,
      "ĠvÃŃrus": 6118,
      "ÃŃderes": 6119,
      "Ġaplicar": 6120,
      "ĠidÃ©ia": 6121,
      "istos": 6122,
      "ĠÃ¡lb": 6123,
      "ĠCR": 6124,
      "orra": 6125,
      "Ġemit": 6126,
      "ĠParis": 6127,
      "olÃ³gicos": 6128,
      "Ġtentando": 6129,
      "Ġcot": 6130,
      "ĠcÃ©rebro": 6131,
      "Ġexige": 6132,
      "Ġaper": 6133,
      "Ġalimentar": 6134,
      "Ġdesenvolvido": 6135,
      "Ġtaxas": 6136,
      "Ġescre": 6137,
      "Ġgostaria": 6138,
      "ÃŃmbol": 6139,
      "ĠaÃ©": 6140,
      "Ġimper": 6141,
      "ĠinovaÃ§Ã£o": 6142,
      "rina": 6143,
      "ĠtrÃ¢nsito": 6144,
      "aga": 6145,
      "Ġincom": 6146,
      "Ġobst": 6147,
      "Ġconfort": 6148,
      "rove": 6149,
      "Ġdecorre": 6150,
      "Ġavaliar": 6151,
      "Ġgratuito": 6152,
      "Ġmencion": 6153,
      "Ġadia": 6154,
      "Ġultrap": 6155,
      "orrÃªncia": 6156,
      "Ġqueremos": 6157,
      "entre": 6158,
      "Ġmostrou": 6159,
      "Ġchamar": 6160,
      "Ġmonito": 6161,
      "Qual": 6162,
      "Ġcomando": 6163,
      "Ġconsiderada": 6164,
      "ĠprejuÃŃ": 6165,
      "ĠlanÃ§ado": 6166,
      "Ġcombust": 6167,
      "ĠestaÃ§Ã£o": 6168,
      "RAN": 6169,
      "Ġenfrentar": 6170,
      "ĠVamos": 6171,
      "Ġcarinho": 6172,
      "ĠSerÃ¡": 6173,
      "Ġexplicou": 6174,
      "ĠcorrupÃ§Ã£o": 6175,
      "Ġiria": 6176,
      "udos": 6177,
      "ĠTo": 6178,
      "Ã©gio": 6179,
      "ĠGuerra": 6180,
      "amar": 6181,
      "Ġleitor": 6182,
      "ĠfÃ£s": 6183,
      "empre": 6184,
      "Ġdispositivo": 6185,
      "olha": 6186,
      "ĠfaÃ§o": 6187,
      "last": 6188,
      "....": 6189,
      "Ġcuidar": 6190,
      "AÃĩÃĥO": 6191,
      "Ġgig": 6192,
      "Ġestrada": 6193,
      "ĠmÃ©todos": 6194,
      "Ġimpul": 6195,
      "Ġexcesso": 6196,
      "ĠfrequÃªncia": 6197,
      "Ġvariedade": 6198,
      "Ġdestaca": 6199,
      "eto": 6200,
      "Ġamiz": 6201,
      "Ġcorrida": 6202,
      "tiliz": 6203,
      "Ġdireta": 6204,
      "ĠprevenÃ§Ã£o": 6205,
      "omes": 6206,
      "che": 6207,
      "ĠCu": 6208,
      "Ġpensando": 6209,
      "iÃ¡rios": 6210,
      "Ġalternativa": 6211,
      "ĠAM": 6212,
      "ĠRegional": 6213,
      "Ġsono": 6214,
      "Ġcarre": 6215,
      "Ġmental": 6216,
      "ĠEnquanto": 6217,
      "ĠdomÃŃnio": 6218,
      "Ġvotos": 6219,
      "Ġcontribuir": 6220,
      "Ġplac": 6221,
      "Ġadquir": 6222,
      "Ġchocol": 6223,
      "Ġprot": 6224,
      "Ġestad": 6225,
      "ĠeficiÃªncia": 6226,
      "Ġcoloca": 6227,
      "Ġaprendizagem": 6228,
      "Ġress": 6229,
      "ĠRede": 6230,
      "rs": 6231,
      "ĠdiagnÃ³stico": 6232,
      "SC": 6233,
      "ĠJul": 6234,
      "Ġvoltou": 6235,
      "fin": 6236,
      "ĠCampe": 6237,
      "Ġadvers": 6238,
      "Ġmeninas": 6239,
      "Ġculturais": 6240,
      "cool": 6241,
      "Ġinstrumento": 6242,
      "Ġcong": 6243,
      "Ġpain": 6244,
      "Ġvul": 6245,
      "Ġolho": 6246,
      "ĠintegraÃ§Ã£o": 6247,
      "Ġutiliza": 6248,
      "Ġjornalista": 6249,
      "Ġaquis": 6250,
      "Ġmembro": 6251,
      "Ġatos": 6252,
      "Ġarmas": 6253,
      "erou": 6254,
      "ĠPont": 6255,
      "Ġaparecer": 6256,
      "lor": 6257,
      "ĠÃºltimas": 6258,
      "Ġfr": 6259,
      "Ġhosped": 6260,
      "Ġacessar": 6261,
      "tem": 6262,
      "Ġdestas": 6263,
      "ĠJorge": 6264,
      "ĠcrÃŃtica": 6265,
      "Ġnerv": 6266,
      "itoral": 6267,
      "Ġparceiros": 6268,
      "icia": 6269,
      "Ġcobertura": 6270,
      "ises": 6271,
      "di": 6272,
      "ĠhipÃ³tes": 6273,
      "Ġcircun": 6274,
      "Ġ2006": 6275,
      "med": 6276,
      "Ġfotograf": 6277,
      "cend": 6278,
      "Ġfis": 6279,
      "Ġjustamente": 6280,
      "ĠRoberto": 6281,
      "Ġrealizados": 6282,
      "Ġcrimes": 6283,
      "Ġfiscal": 6284,
      "ĠArg": 6285,
      "antemente": 6286,
      "ulada": 6287,
      "uraÃ§Ã£o": 6288,
      "Desc": 6289,
      "Ã³polis": 6290,
      "ĠCE": 6291,
      "Ġ45": 6292,
      "Ġextre": 6293,
      "ĠausÃªncia": 6294,
      "han": 6295,
      "ĠEscol": 6296,
      "erÃªncia": 6297,
      "Ġfluxo": 6298,
      "ĠIP": 6299,
      "Ġcolaboradores": 6300,
      "Ġpresid": 6301,
      "Ġvot": 6302,
      "Ġdesconto": 6303,
      "Ġachar": 6304,
      "rantes": 6305,
      "ĠdÃ³lares": 6306,
      "ĠHotel": 6307,
      "ĠReino": 6308,
      "iÃ¡ria": 6309,
      "ĠPai": 6310,
      "Ġarro": 6311,
      "III": 6312,
      "ĠjuÃŃ": 6313,
      "ĠacadÃªm": 6314,
      "Ġinfluenc": 6315,
      "ĠimÃ³vel": 6316,
      "Ġregra": 6317,
      "Ġpediu": 6318,
      "ouro": 6319,
      "ĠRel": 6320,
      "part": 6321,
      "Ġcheia": 6322,
      "UM": 6323,
      "Ġbloque": 6324,
      "ĠBolsonaro": 6325,
      "Ġcriada": 6326,
      "Ġperfeita": 6327,
      "Ġmenina": 6328,
      "portes": 6329,
      "ĠFe": 6330,
      "Ġintelec": 6331,
      "ĠtransmissÃ£o": 6332,
      "Ġvas": 6333,
      "Ġincorpo": 6334,
      "Ã©rc": 6335,
      "ĠcompreensÃ£o": 6336,
      "nÃ¡": 6337,
      "Ġ300": 6338,
      "ĠGon": 6339,
      "Ġaceitar": 6340,
      "Foto": 6341,
      "Ġapresentou": 6342,
      "ĠRE": 6343,
      "erente": 6344,
      "Ġpreto": 6345,
      "Ġhabilidades": 6346,
      "ĠpÃ³": 6347,
      "tais": 6348,
      "Ġcair": 6349,
      "Ġeficiente": 6350,
      "ĠmÃ©dica": 6351,
      "Ġreporta": 6352,
      "Ġdupla": 6353,
      "Ġdito": 6354,
      "Ġperce": 6355,
      "ĠepisÃ³dio": 6356,
      "Ġabre": 6357,
      "ĠindivÃŃduos": 6358,
      "otes": 6359,
      "ĠÃģfrica": 6360,
      "Ġsorris": 6361,
      "Ġmex": 6362,
      "ĠcontÃ©m": 6363,
      "iosas": 6364,
      "Ġdiariamente": 6365,
      "ĠCel": 6366,
      "ĠFundaÃ§Ã£o": 6367,
      "ĠtÃ¡": 6368,
      "Ġcorrer": 6369,
      "ĠHar": 6370,
      "ĠtradiÃ§Ã£o": 6371,
      "rosoft": 6372,
      "ĠresoluÃ§Ã£o": 6373,
      "orno": 6374,
      "Ġcolegas": 6375,
      "ĠnÃ©": 6376,
      "ĠJap": 6377,
      "Ġpaul": 6378,
      "**": 6379,
      "cr": 6380,
      "essoria": 6381,
      "ĠbotÃ£o": 6382,
      "stname": 6383,
      "ĠMora": 6384,
      "lastname": 6385,
      "Ġadvogado": 6386,
      "rador": 6387,
      "Ġconsulta": 6388,
      "BA": 6389,
      "AtÃ©": 6390,
      "Ġbrilha": 6391,
      "Ġigualmente": 6392,
      "Ġgast": 6393,
      "Ad": 6394,
      "Ġpersonalidade": 6395,
      "Ġsegmento": 6396,
      "ĠdeverÃ£o": 6397,
      "ÃģR": 6398,
      "ĠCÃ³digo": 6399,
      "entaÃ§Ãµes": 6400,
      "Ġfator": 6401,
      "ĠGar": 6402,
      "Ġjulgamento": 6403,
      "ĠdÃ©cadas": 6404,
      "ĠNas": 6405,
      "Ã©rito": 6406,
      "rosso": 6407,
      "ĠgÃªnero": 6408,
      "Ġcompromet": 6409,
      "Ġtel": 6410,
      "ðŁ": 6411,
      "adura": 6412,
      "Ġguia": 6413,
      "Ġfacilitar": 6414,
      "Ġsinto": 6415,
      "estÃµes": 6416,
      "cendo": 6417,
      "martp": 6418,
      "ĠHa": 6419,
      "Ġuse": 6420,
      "Ġinferior": 6421,
      "Confira": 6422,
      "ederaÃ§Ã£o": 6423,
      "ĠIsrael": 6424,
      "tiv": 6425,
      "Ġentendimento": 6426,
      "ĠfarÃ¡": 6427,
      "izonte": 6428,
      "ĠNew": 6429,
      "Ġcondicion": 6430,
      "ĠhaverÃ¡": 6431,
      "ilhar": 6432,
      "Ġbolsa": 6433,
      "Ġadolescentes": 6434,
      "oura": 6435,
      "Ã¡stica": 6436,
      "resse": 6437,
      "ĠPereira": 6438,
      "Ġcontrolar": 6439,
      "ĠAtl": 6440,
      "ianos": 6441,
      "ĠGil": 6442,
      "adoria": 6443,
      "Ġrob": 6444,
      "Ġprofessora": 6445,
      "mal": 6446,
      "ntemente": 6447,
      "Ãªncio": 6448,
      "Ġchave": 6449,
      "Ġsobreviv": 6450,
      "Ġalvo": 6451,
      "ĠBus": 6452,
      "Ġrespira": 6453,
      "ĠligaÃ§Ã£o": 6454,
      "ÃŃblia": 6455,
      "itiba": 6456,
      "its": 6457,
      "ĠrazÃµes": 6458,
      "Ġpasseio": 6459,
      "Ġvisitantes": 6460,
      "Ġsurgiu": 6461,
      "Ġrei": 6462,
      "ĠPois": 6463,
      "Ġindica": 6464,
      "ĠAndrÃ©": 6465,
      "ĠYork": 6466,
      "indica": 6467,
      "Ġleitores": 6468,
      "Ġfornecer": 6469,
      "Ġperdeu": 6470,
      "Ġobservar": 6471,
      "Ġnele": 6472,
      "Ġautoridade": 6473,
      "afa": 6474,
      "Ġlegais": 6475,
      "ĠVida": 6476,
      "ld": 6477,
      "ĠsÃŃmbol": 6478,
      "Ġacreditar": 6479,
      "Ġjornada": 6480,
      "espera": 6481,
      "Ġperspectiva": 6482,
      "ĠlÃŃderes": 6483,
      "ĠFerreira": 6484,
      "rÃ£o": 6485,
      "Pa": 6486,
      "Ġtanta": 6487,
      "orma": 6488,
      "NÃ³s": 6489,
      "Desde": 6490,
      "Ġrelacionadas": 6491,
      "Ġdisputa": 6492,
      "Ġsubmet": 6493,
      "Ġconsiderar": 6494,
      "Ġsuplem": 6495,
      "Ġentrev": 6496,
      "ĠVic": 6497,
      "Ġamare": 6498,
      "arei": 6499,
      "ocal": 6500,
      "ÃŃsticos": 6501,
      "mer": 6502,
      "ĠCidade": 6503,
      "iguel": 6504,
      "Ġjantar": 6505,
      "Ġescal": 6506,
      "Ġgre": 6507,
      "Ġpositivo": 6508,
      "Ġconvidados": 6509,
      "Ġileg": 6510,
      "Ġapresentam": 6511,
      "VI": 6512,
      "ser": 6513,
      "ĠespecÃŃfico": 6514,
      "Ġfirm": 6515,
      "uo": 6516,
      "Ġencontrado": 6517,
      "redo": 6518,
      "ĠLond": 6519,
      "Ġexames": 6520,
      "Ġexpectativa": 6521,
      "tocol": 6522,
      "ĠinfÃ¢ncia": 6523,
      "ĠpÃ´": 6524,
      "Ġcorrente": 6525,
      "Po": 6526,
      "ĠsÃŃ": 6527,
      "Ġpoucas": 6528,
      "ĠMunicÃŃp": 6529,
      "Ġpedra": 6530,
      "Ġrevela": 6531,
      "ĠintervenÃ§Ã£o": 6532,
      "Ãªnd": 6533,
      "PM": 6534,
      "Ġdaqueles": 6535,
      "atu": 6536,
      "presas": 6537,
      "Ġamericano": 6538,
      "wer": 6539,
      "Ġliteratura": 6540,
      "OM": 6541,
      "Ġperform": 6542,
      "Ġerrado": 6543,
      "ĠWal": 6544,
      "Ġprojec": 6545,
      "Ġparque": 6546,
      "ĠAmor": 6547,
      "ENTE": 6548,
      "rizes": 6549,
      "premo": 6550,
      "veu": 6551,
      "ĠiP": 6552,
      "Ġdentre": 6553,
      "itÃ¡rios": 6554,
      "ĠBarb": 6555,
      "Ġdemocracia": 6556,
      "duzir": 6557,
      "Ġrestaurantes": 6558,
      "Ġilha": 6559,
      "Ã©ns": 6560,
      "Ġafast": 6561,
      "Ela": 6562,
      "Ġvermelho": 6563,
      "Ġpromete": 6564,
      "Ġurg": 6565,
      "Ġanunciou": 6566,
      "ĠjurÃŃdica": 6567,
      "ĠaplicaÃ§Ãµes": 6568,
      "ĠidentificaÃ§Ã£o": 6569,
      "Ġdirecion": 6570,
      "ĠextensÃ£o": 6571,
      "Ġabord": 6572,
      "ĠtÃŃp": 6573,
      "ĠExecut": 6574,
      "Ġagir": 6575,
      "ĠtÃŃtulos": 6576,
      "Ġatletas": 6577,
      "fal": 6578,
      "ĠPs": 6579,
      "Ġresg": 6580,
      "Ġcirurgia": 6581,
      "ĠSp": 6582,
      "onel": 6583,
      "ĠcomissÃ£o": 6584,
      "Ġvoto": 6585,
      "ĠaniversÃ¡rio": 6586,
      "Ġcostum": 6587,
      "Ġimun": 6588,
      "yl": 6589,
      "Ġsuger": 6590,
      "ilhe": 6591,
      "ĠcÃ¡": 6592,
      "Ãªnt": 6593,
      "ions": 6594,
      "Ġquaisquer": 6595,
      "Ġlembro": 6596,
      "izou": 6597,
      "Ġingredientes": 6598,
      "Ġantecip": 6599,
      "Ġestejam": 6600,
      "ĠFut": 6601,
      "Ġgram": 6602,
      "ĠfÃ¡br": 6603,
      "Ġensa": 6604,
      "inÃ¡rias": 6605,
      "istro": 6606,
      "ĠSalvador": 6607,
      "ecei": 6608,
      "Ġcolher": 6609,
      "urou": 6610,
      "Ġanda": 6611,
      "Ġradic": 6612,
      "Ġeleitoral": 6613,
      "Ġcurt": 6614,
      "'s": 6615,
      "Ġsegura": 6616,
      "Ġpersegu": 6617,
      "isse": 6618,
      "nce": 6619,
      "ITO": 6620,
      "Ġessenciais": 6621,
      "ĠGen": 6622,
      "Ġgastos": 6623,
      "Ġpedag": 6624,
      "Ġfavo": 6625,
      "Ġestrelas": 6626,
      "Ġpensamentos": 6627,
      "uco": 6628,
      "Ġmediante": 6629,
      "ĠAntÃ´nio": 6630,
      "Ġfat": 6631,
      "icipais": 6632,
      "Ġfestas": 6633,
      "ĠtransformaÃ§Ã£o": 6634,
      "ĠCN": 6635,
      "ize": 6636,
      "Ġsurpreend": 6637,
      "Ġtub": 6638,
      "quinho": 6639,
      "atroc": 6640,
      "Ġsemelhante": 6641,
      "ĠcomposiÃ§Ã£o": 6642,
      "ĠFlo": 6643,
      "Ġregulam": 6644,
      "Ġvivem": 6645,
      "ĠmÃº": 6646,
      "Ġcausas": 6647,
      "Ġimpression": 6648,
      "Ġexistentes": 6649,
      "Ġfacilidade": 6650,
      "Ġsurpresa": 6651,
      "aliza": 6652,
      "Ġvari": 6653,
      "eceu": 6654,
      "ĠAgÃªncia": 6655,
      "Antes": 6656,
      "Ġdesloc": 6657,
      "ĠsatisfaÃ§Ã£o": 6658,
      "vem": 6659,
      "ĠsuperfÃŃcie": 6660,
      "ĠespÃ©cies": 6661,
      "Ġlocalizado": 6662,
      "Ġfinanciamento": 6663,
      "Ġadequado": 6664,
      "Ġmudou": 6665,
      "Ġantigos": 6666,
      "Ġpoderiam": 6667,
      "Ġbater": 6668,
      "33": 6669,
      "Ġinqu": 6670,
      "Ãµem": 6671,
      "ĠAssembleia": 6672,
      "Ġpede": 6673,
      "Ġcumprimento": 6674,
      "ĠreligiÃ£o": 6675,
      "ĠUN": 6676,
      "ĠNet": 6677,
      "Ġdestacou": 6678,
      "Ġvindo": 6679,
      "ÃĩÃķES": 6680,
      "Ġconquista": 6681,
      "Ġtente": 6682,
      "icados": 6683,
      "ted": 6684,
      "Ġagress": 6685,
      "itudes": 6686,
      "ĠdiferenÃ§as": 6687,
      "Ã¢nd": 6688,
      "ĠHel": 6689,
      "Ġdores": 6690,
      "ester": 6691,
      "NTE": 6692,
      "ĠHistÃ³ria": 6693,
      "Ġcookies": 6694,
      "ĠEspanha": 6695,
      "ĠPare": 6696,
      "ĠcomeÃ§aram": 6697,
      "ĠYou": 6698,
      "Ġidio": 6699,
      "Ġfeira": 6700,
      "GO": 6701,
      "ĠLou": 6702,
      "ĠSuperior": 6703,
      "ĠVis": 6704,
      "arÃ£o": 6705,
      "ĠVir": 6706,
      "Ġhumor": 6707,
      "roc": 6708,
      "ĠÃ³b": 6709,
      "Ġplan": 6710,
      "olÃ³gicas": 6711,
      "idenc": 6712,
      "olina": 6713,
      "Ġportuguesa": 6714,
      "Ġdoce": 6715,
      "OlÃ¡": 6716,
      "Ġwh": 6717,
      "Ġsignificado": 6718,
      "Ġqueb": 6719,
      "ĠlideranÃ§a": 6720,
      "Ġ36": 6721,
      "Ġcerim": 6722,
      "ĠMarcelo": 6723,
      "ĠAntes": 6724,
      "MP": 6725,
      "Ġfarm": 6726,
      "Ġcento": 6727,
      "ĠmÃ¡quinas": 6728,
      "Ġedif": 6729,
      "ĠcontÃŃn": 6730,
      "Ġcotid": 6731,
      "ĠAlegre": 6732,
      "ĠAC": 6733,
      "ĠinteligÃªncia": 6734,
      "Ġpertenc": 6735,
      "Ã¢ndia": 6736,
      "Ġdisciplina": 6737,
      "Ġafe": 6738,
      "Gra": 6739,
      "Ġdownload": 6740,
      "reta": 6741,
      "ĠBas": 6742,
      "%,": 6743,
      "2017": 6744,
      "ĠPolÃŃtica": 6745,
      "ĠindÃŃg": 6746,
      "Ġaplicativos": 6747,
      "Ġtomada": 6748,
      "ĠLuÃŃs": 6749,
      "Ġvib": 6750,
      "ĠSch": 6751,
      "Ġrealiza": 6752,
      "fim": 6753,
      "ĠEqu": 6754,
      "ute": 6755,
      "ĠFest": 6756,
      "Ġpalco": 6757,
      "Ed": 6758,
      "Ġfolhas": 6759,
      "Jo": 6760,
      "site": 6761,
      "Ġformul": 6762,
      "hamos": 6763,
      "Ġbarra": 6764,
      "valho": 6765,
      "Ġcere": 6766,
      "ĠEncont": 6767,
      "Ġmis": 6768,
      "Ġarran": 6769,
      "ĠSouza": 6770,
      "ĠBal": 6771,
      "ĠÃĵ": 6772,
      "Ġpermitem": 6773,
      "Ġmostram": 6774,
      "ten": 6775,
      "ansÃ£o": 6776,
      "Ġespet": 6777,
      "itutas": 6778,
      "Ġenvolvidos": 6779,
      "arina": 6780,
      "Ġdescan": 6781,
      "Ġalerta": 6782,
      "ml": 6783,
      "alizaÃ§Ãµes": 6784,
      "Ġvinc": 6785,
      "Ġampla": 6786,
      "Ġtransforma": 6787,
      "ĠtÃ©r": 6788,
      "Ġbro": 6789,
      "hi": 6790,
      "Ġpesquisadores": 6791,
      "Ġconjunt": 6792,
      "Ġdespesas": 6793,
      "Ġseriam": 6794,
      "ĠMad": 6795,
      "Ġjuntamente": 6796,
      "Ġdesenho": 6797,
      "ÃŃssima": 6798,
      "Leia": 6799,
      "reas": 6800,
      "Ġrelax": 6801,
      "ĠPlano": 6802,
      "Ġpront": 6803,
      "Ġmorreu": 6804,
      "Ġadquirir": 6805,
      "Ġfrase": 6806,
      "Ĥ¬": 6807,
      "ĠParanÃ¡": 6808,
      "Ġcontratos": 6809,
      "Ġemocional": 6810,
      "Ġfundamentais": 6811,
      "Ġpan": 6812,
      "Ġconsiste": 6813,
      "ĠfenÃ´m": 6814,
      "entados": 6815,
      "Ġauxiliar": 6816,
      "Ġconferir": 6817,
      "Ġestabelecer": 6818,
      "ÃŃduos": 6819,
      "ĠPOR": 6820,
      "Ġga": 6821,
      "ĠItÃ¡lia": 6822,
      "Ġexclusivamente": 6823,
      "Ġvidro": 6824,
      "ĠComunicaÃ§Ã£o": 6825,
      "Ġcanais": 6826,
      "ncios": 6827,
      "ĠOri": 6828,
      "Ġmercados": 6829,
      "ĠXX": 6830,
      "ĠBro": 6831,
      "Ġpolicial": 6832,
      "uas": 6833,
      "ĠBu": 6834,
      "Ġposse": 6835,
      "ĠMor": 6836,
      "Ġesporte": 6837,
      "Ġq": 6838,
      "ĠSenado": 6839,
      "Ġposta": 6840,
      "indicato": 6841,
      "orld": 6842,
      "Ġsing": 6843,
      "ĠvÃ¡": 6844,
      "Ġterror": 6845,
      "Ġcontempor": 6846,
      "Un": 6847,
      "ĠMeu": 6848,
      "Ġje": 6849,
      "Ġabordagem": 6850,
      "Ġdentes": 6851,
      "Ġexpress": 6852,
      "Ġdiminuir": 6853,
      "Ġescreveu": 6854,
      "Ġinstrumentos": 6855,
      "vie": 6856,
      "Ãºl": 6857,
      "ĠForm": 6858,
      "urb": 6859,
      "adeia": 6860,
      "ĠdiÃ¡logo": 6861,
      "uns": 6862,
      "Col": 6863,
      "ĠAndroid": 6864,
      "Ġsmartp": 6865,
      "Ġvencer": 6866,
      "Ġadequada": 6867,
      "Ġassumir": 6868,
      "Ġacompanhamento": 6869,
      "Ġfinalidade": 6870,
      "Ġficando": 6871,
      "ĠpÃ£o": 6872,
      "Ġjudicial": 6873,
      "ĠescritÃ³rio": 6874,
      "36": 6875,
      "Ġquadr": 6876,
      "ue": 6877,
      "Ġpedidos": 6878,
      "ĠBem": 6879,
      "Ġindicado": 6880,
      "idaÃ§Ã£o": 6881,
      "Ġnovidade": 6882,
      "ĠpaixÃ£o": 6883,
      "Ġfomos": 6884,
      "Ġpopulares": 6885,
      "Ġexistir": 6886,
      "ĠeleiÃ§Ã£o": 6887,
      "Ġviajar": 6888,
      "Ġvejo": 6889,
      "ĠDaniel": 6890,
      "Ġbranca": 6891,
      "Ġestacion": 6892,
      "hecimento": 6893,
      "bas": 6894,
      "Ġnove": 6895,
      "Ġvaga": 6896,
      "Ġades": 6897,
      "postos": 6898,
      "book": 6899,
      "Ġaprec": 6900,
      "Ġtrouxe": 6901,
      "ĠalteraÃ§Ã£o": 6902,
      "Ġmoderno": 6903,
      "Ġponta": 6904,
      "ION": 6905,
      "ĠrÃ¡dio": 6906,
      "ĠLegisl": 6907,
      "ics": 6908,
      "ĠOc": 6909,
      "Ġconseguem": 6910,
      "ĠacessÃ³rios": 6911,
      "Ġjanela": 6912,
      "Ġatua": 6913,
      "Ġva": 6914,
      "Ġmelhoria": 6915,
      "Ġruim": 6916,
      "iblioteca": 6917,
      "Ġmusical": 6918,
      "ĠdomÃ©st": 6919,
      "ulto": 6920,
      "ĠoposiÃ§Ã£o": 6921,
      "Ġconosco": 6922,
      "Ġrol": 6923,
      "Ġequival": 6924,
      "rÃ¡ficos": 6925,
      "eij": 6926,
      "Ã©ias": 6927,
      "Ġcampos": 6928,
      "Ġajudam": 6929,
      "ĠespecÃŃficos": 6930,
      "Ã¢neo": 6931,
      "ĠdÃ©": 6932,
      "Ġfamoso": 6933,
      "Ġculpa": 6934,
      "ĠNot": 6935,
      "Ġbrit": 6936,
      "ĠTwitter": 6937,
      "Ġjap": 6938,
      "ĠlocalizaÃ§Ã£o": 6939,
      "pes": 6940,
      "ries": 6941,
      "Ġterceiros": 6942,
      "Ã©rcito": 6943,
      "Ġcaminhos": 6944,
      "etos": 6945,
      "ĠAli": 6946,
      "Ġesquecer": 6947,
      "ĠvÃªm": 6948,
      "Ġnascimento": 6949,
      "abe": 6950,
      "Ġescala": 6951,
      "ĠServiÃ§o": 6952,
      "abil": 6953,
      "Ġchocolate": 6954,
      "alizadas": 6955,
      "Ã³x": 6956,
      "Tudo": 6957,
      "ĠMara": 6958,
      "Ġbonito": 6959,
      "ann": 6960,
      "Vamos": 6961,
      "Ġmetod": 6962,
      "ĠconcentraÃ§Ã£o": 6963,
      "OD": 6964,
      "enses": 6965,
      "Ġencom": 6966,
      "ĠtendÃªncias": 6967,
      "ĠÃ¡lbum": 6968,
      "Ġang": 6969,
      "Ġmanc": 6970,
      "ĠprofissÃ£o": 6971,
      "Ġben": 6972,
      "ĠChe": 6973,
      "Ġvc": 6974,
      "Ġcomponentes": 6975,
      "Ġvigor": 6976,
      "Ġnisso": 6977,
      "ĠLuz": 6978,
      "Ġpropriedades": 6979,
      "Ġitem": 6980,
      "Ġcriatividade": 6981,
      "Ġchegando": 6982,
      "Ġposto": 6983,
      "ĠPetro": 6984,
      "ĠgÃ¡s": 6985,
      "ĠBom": 6986,
      "ndro": 6987,
      "ĠAz": 6988,
      "Ġ2005": 6989,
      "eza": 6990,
      "Ġachei": 6991,
      "obres": 6992,
      "cam": 6993,
      "ituras": 6994,
      "Ġimpostos": 6995,
      "ĠDesta": 6996,
      "Ġinterno": 6997,
      "ĠprestaÃ§Ã£o": 6998,
      "nciamento": 6999,
      "Ġrique": 7000,
      "ĠPrev": 7001,
      "ĠIns": 7002,
      "Ġnotas": 7003,
      "ĠSempre": 7004,
      "ĠCorpo": 7005,
      "ĠdÃŃvida": 7006,
      "Ġdesl": 7007,
      "ĠArqu": 7008,
      "ĠresidÃªncia": 7009,
      "ĠHer": 7010,
      "Ġperante": 7011,
      "Ġsofrimento": 7012,
      "Aqui": 7013,
      "ucion": 7014,
      "Ġfavoritos": 7015,
      "onio": 7016,
      "paro": 7017,
      "Ġsindic": 7018,
      "ilizar": 7019,
      "Ġsegundos": 7020,
      "ĠTor": 7021,
      "Ġigno": 7022,
      "Ġcorreta": 7023,
      "Ġ2000": 7024,
      "Ġdemocr": 7025,
      "ĠamanhÃ£": 7026,
      "Ġpeda": 7027,
      "ientais": 7028,
      "ĠreflexÃ£o": 7029,
      "Ġcontempl": 7030,
      "orada": 7031,
      "Ġfio": 7032,
      "Ġcadastro": 7033,
      "jado": 7034,
      "ĠBlog": 7035,
      "Ġnao": 7036,
      "ĠfÃŃsicas": 7037,
      "ĠdeclaraÃ§Ã£o": 7038,
      "ĠDepartamento": 7039,
      "avia": 7040,
      "Ġcomplexo": 7041,
      "Ġdescul": 7042,
      "ĠAT": 7043,
      "Ã©dios": 7044,
      "inente": 7045,
      "ĠSub": 7046,
      "erada": 7047,
      "Ġfrutas": 7048,
      "Ġorganizar": 7049,
      "Ġsozinho": 7050,
      "rapia": 7051,
      "ĠconexÃ£o": 7052,
      "ĠcidadÃ£o": 7053,
      "Ġescolhe": 7054,
      "ĠRodrigues": 7055,
      "Int": 7056,
      "estos": 7057,
      "ĠCampos": 7058,
      "ĠHenrique": 7059,
      "Ġmenino": 7060,
      "Ġcostas": 7061,
      "Ã³rico": 7062,
      "Ġdecidir": 7063,
      "31": 7064,
      "ĠTemos": 7065,
      "Ġaguard": 7066,
      "ÃŃne": 7067,
      "Ġoferecem": 7068,
      "Ġbrasileiras": 7069,
      "Ver": 7070,
      "Ġvert": 7071,
      "Ġthis": 7072,
      "ĠMiguel": 7073,
      "essÃµes": 7074,
      "Ġhidra": 7075,
      "Ġprivada": 7076,
      "LO": 7077,
      "ĠdaÃŃ": 7078,
      "ĠprevisÃ£o": 7079,
      "Ġirreg": 7080,
      "quim": 7081,
      "Ġhav": 7082,
      "Ã§ados": 7083,
      "MG": 7084,
      "ĠsÃ©rio": 7085,
      "Ġsolar": 7086,
      "orou": 7087,
      "Ġconvoc": 7088,
      "Ġturismo": 7089,
      "ĠinscriÃ§Ãµes": 7090,
      "ĠReal": 7091,
      "onstru": 7092,
      "Ġadmit": 7093,
      "Outro": 7094,
      "ĠtransferÃªncia": 7095,
      "Ġadapt": 7096,
      "Ġsequer": 7097,
      "ĠMicrosoft": 7098,
      "Enc": 7099,
      "Ġassust": 7100,
      "ĠdanÃ§a": 7101,
      "Ġprefeitura": 7102,
      "Ġrodo": 7103,
      "oce": 7104,
      "Ġacion": 7105,
      "Ġdigitais": 7106,
      "ull": 7107,
      "ficial": 7108,
      "ĠAlexand": 7109,
      "Ġservidor": 7110,
      "Ġvence": 7111,
      "Ġdesemb": 7112,
      "atas": 7113,
      "rÃ³leo": 7114,
      "ĠAlves": 7115,
      "ĠAfinal": 7116,
      "Ġdada": 7117,
      "ĠexpansÃ£o": 7118,
      "ĠInstagram": 7119,
      "Ġporn": 7120,
      "DF": 7121,
      "portar": 7122,
      "Ġdiab": 7123,
      "ĠQuanto": 7124,
      "mentos": 7125,
      "Ġdefender": 7126,
      "55": 7127,
      "Ġjapon": 7128,
      "Ġtopo": 7129,
      "ĠJornal": 7130,
      "Ġvestido": 7131,
      "cante": 7132,
      "Ġcircunst": 7133,
      "Ġmelhora": 7134,
      "Ġfant": 7135,
      "ÃŃmp": 7136,
      "ii": 7137,
      "LE": 7138,
      "Ġdeus": 7139,
      "ergia": 7140,
      "ĠclÃ¡ssico": 7141,
      "ĠEntretanto": 7142,
      "Me": 7143,
      "Ġinforma": 7144,
      "ĠVia": 7145,
      "Ġpartidos": 7146,
      "ĠServiÃ§os": 7147,
      "Ġdescar": 7148,
      "Ġterras": 7149,
      "Ġplanta": 7150,
      "ĠTalvez": 7151,
      "ĠcritÃ©rios": 7152,
      "ĠbraÃ§os": 7153,
      "Ġelemento": 7154,
      "Da": 7155,
      "Ġfome": 7156,
      "ĠSU": 7157,
      "men": 7158,
      "Ġquartos": 7159,
      "ĠsequÃªncia": 7160,
      "ĠGomes": 7161,
      "Ġcoragem": 7162,
      "ĠaudiÃªncia": 7163,
      "Ġinteressados": 7164,
      "ĠVit": 7165,
      "mula": 7166,
      "Ġanuncia": 7167,
      "ĠFab": 7168,
      "Ġconcorre": 7169,
      "Ġincluem": 7170,
      "ĠcientÃŃfica": 7171,
      "37": 7172,
      "Ãºcleo": 7173,
      "atÃ³rios": 7174,
      "Ġativos": 7175,
      "ĠÃºteis": 7176,
      "ĠesforÃ§os": 7177,
      "icais": 7178,
      "Ġhigi": 7179,
      "ĠfrancÃªs": 7180,
      "ĠWill": 7181,
      "ĠAcad": 7182,
      "Ġfotografia": 7183,
      "Ġresul": 7184,
      "ĠMinha": 7185,
      "ĠBÃŃblia": 7186,
      "ĠMich": 7187,
      "Ġindustrial": 7188,
      "Ġacredito": 7189,
      "Ãºssia": 7190,
      "Ġlixo": 7191,
      "Ġcomposto": 7192,
      "ao": 7193,
      "Ġmetas": 7194,
      "Ġsujeito": 7195,
      "Ġcategorias": 7196,
      "ĠQ": 7197,
      "Ġcoloque": 7198,
      "ĠprÃ³ximas": 7199,
      "Ġprostitutas": 7200,
      "endÃ¡rio": 7201,
      "ĠsilÃªncio": 7202,
      "Ġenvel": 7203,
      "Ġpermanente": 7204,
      "Ġsofrer": 7205,
      "Ġmostrando": 7206,
      "Ġchar": 7207,
      "ICO": 7208,
      "Ġfuncionar": 7209,
      "Ġpublicidade": 7210,
      "Ġautomaticamente": 7211,
      "Ġchances": 7212,
      "ĠelÃ©trica": 7213,
      "Ġcomprov": 7214,
      "Ġcachor": 7215,
      "Ġarg": 7216,
      "press": 7217,
      "Ġconect": 7218,
      "URA": 7219,
      "ĠClube": 7220,
      "LA": 7221,
      "ivelmente": 7222,
      "iago": 7223,
      "edoria": 7224,
      "Ġcertos": 7225,
      "ĠCurso": 7226,
      "ĠMarketing": 7227,
      "ificou": 7228,
      "Ġdil": 7229,
      "ĠaquisiÃ§Ã£o": 7230,
      "Ġemag": 7231,
      "Ġcomand": 7232,
      "rinho": 7233,
      "Ġestrang": 7234,
      "Ġdiscutir": 7235,
      "Ġmau": 7236,
      "Ġinfin": 7237,
      "Ġmuda": 7238,
      "Ġetapas": 7239,
      "ĠautorizaÃ§Ã£o": 7240,
      "Im": 7241,
      "ĠinstalaÃ§Ãµes": 7242,
      "Ġlucro": 7243,
      "ĠoraÃ§Ã£o": 7244,
      "Ġentregar": 7245,
      "Ã§ou": 7246,
      "Ġu": 7247,
      "Ġminim": 7248,
      "ĠmÃ¡xima": 7249,
      "sho": 7250,
      "Ġexclu": 7251,
      "ĠnÃ£este": 7252,
      "Ġexcess": 7253,
      "ĠGa": 7254,
      "wo": 7255,
      "iquem": 7256,
      "Ġnuv": 7257,
      "riqu": 7258,
      "Ġmortos": 7259,
      "Ġinverno": 7260,
      "Ġ!": 7261,
      "agar": 7262,
      "gado": 7263,
      "48": 7264,
      "Ġpernas": 7265,
      "PT": 7266,
      "Ġcoron": 7267,
      "Ġpovos": 7268,
      "Ġinterc": 7269,
      "Ġfossem": 7270,
      "mais": 7271,
      "ĠGoi": 7272,
      "ĠpreferÃªncia": 7273,
      "Ġcadast": 7274,
      "ĠdeficiÃªncia": 7275,
      "utaÃ§Ã£o": 7276,
      "ington": 7277,
      "inf": 7278,
      "Ġassinatura": 7279,
      "ĠEmbora": 7280,
      "ĠJapÃ£o": 7281,
      "Ġprocurando": 7282,
      "vela": 7283,
      "ĠagradÃ¡vel": 7284,
      "ÃŃnas": 7285,
      "Ġequilib": 7286,
      "Ġespor": 7287,
      "ĠestarÃ£o": 7288,
      "Ġpermitindo": 7289,
      "Ġestudante": 7290,
      "Ġbrilho": 7291,
      "Ġrecentes": 7292,
      "Ġfechar": 7293,
      "ĠcrÃŃticas": 7294,
      "ĠconsequÃªncias": 7295,
      "ĠempresÃ¡rio": 7296,
      "ĠimplantaÃ§Ã£o": 7297,
      "ĠForex": 7298,
      "Ã³i": 7299,
      "Ġsed": 7300,
      "Ġmerg": 7301,
      "ecido": 7302,
      "cura": 7303,
      "Ġesque": 7304,
      "Ġacons": 7305,
      "enn": 7306,
      "ires": 7307,
      "Ġrapa": 7308,
      "Ġpobres": 7309,
      "Ġesgo": 7310,
      "ĠFa": 7311,
      "Ġprevisto": 7312,
      "Ġterreno": 7313,
      "Ã´metros": 7314,
      "ĠLatina": 7315,
      "Ġvisa": 7316,
      "Ġengra": 7317,
      "radores": 7318,
      "iciÃ¡rio": 7319,
      "Ġbicic": 7320,
      "Ġdign": 7321,
      "Ġdono": 7322,
      "Ġaltos": 7323,
      "pont": 7324,
      "Ab": 7325,
      "ĠTre": 7326,
      "Ġguer": 7327,
      "ĠreuniÃµes": 7328,
      "pto": 7329,
      "ricos": 7330,
      "Ġbela": 7331,
      "Ġpacote": 7332,
      "Ġacerca": 7333,
      "Ġelog": 7334,
      "Ġlocalizada": 7335,
      "Ġintim": 7336,
      "merc": 7337,
      "ĠTecnologia": 7338,
      "ĠcÃ³p": 7339,
      "ĠLim": 7340,
      "Ġrequisitos": 7341,
      "ĠSupremo": 7342,
      "Ġexpectativas": 7343,
      "Ġprodutores": 7344,
      "Ġ08": 7345,
      "enco": 7346,
      "ĠficarÃ¡": 7347,
      "Ġalimento": 7348,
      "Ġlendo": 7349,
      "ĠcontrataÃ§Ã£o": 7350,
      "Ġmest": 7351,
      "Ġatuar": 7352,
      "rÃ©st": 7353,
      "ĠemoÃ§Ãµes": 7354,
      "Ġdipl": 7355,
      "ĠDefesa": 7356,
      "Ãªnis": 7357,
      "ĠÃŃndice": 7358,
      "Ã§ando": 7359,
      "ĠirmÃ£": 7360,
      "ĠDias": 7361,
      "Ġpand": 7362,
      "Ġdependendo": 7363,
      "Ġteatro": 7364,
      "ings": 7365,
      "terapia": 7366,
      "Ġ32": 7367,
      "Ġmorrer": 7368,
      "Ġcans": 7369,
      ".)": 7370,
      "by": 7371,
      "Ġmaneiras": 7372,
      "avo": 7373,
      "entÃ¡rio": 7374,
      "ĠMuseu": 7375,
      "IAS": 7376,
      "ĠSon": 7377,
      "Ġcabo": 7378,
      "istente": 7379,
      "Ġcontudo": 7380,
      "Ġconvite": 7381,
      "ĠinÃºmeras": 7382,
      "Ġorden": 7383,
      "Ġbaseado": 7384,
      "Ġhouver": 7385,
      "ĠversÃµes": 7386,
      "Ġfort": 7387,
      "Ġsenso": 7388,
      "Ġeter": 7389,
      "ĠCr": 7390,
      "ĠassociaÃ§Ã£o": 7391,
      "Ġcolo": 7392,
      "Ġcriando": 7393,
      "uÃŃ": 7394,
      "ĠRena": 7395,
      "ĠNÃĥO": 7396,
      "ĠpreparaÃ§Ã£o": 7397,
      "Ġbur": 7398,
      "ĠMarcos": 7399,
      "role": 7400,
      "ĠclassificaÃ§Ã£o": 7401,
      "ressÃ£o": 7402,
      "ulados": 7403,
      "tadas": 7404,
      "Ġhomenagem": 7405,
      "ĠprÃ©dio": 7406,
      "riar": 7407,
      "34": 7408,
      "Ġpasta": 7409,
      "rast": 7410,
      "GU": 7411,
      "reiras": 7412,
      "assem": 7413,
      "ĠPet": 7414,
      "Ġagenda": 7415,
      "Ġsorriso": 7416,
      "Ġaprovado": 7417,
      "SÃ³": 7418,
      "Ġresid": 7419,
      "Ġanteriormente": 7420,
      "ĠcontribuiÃ§Ã£o": 7421,
      "istir": 7422,
      "ĠcomeÃ§am": 7423,
      "Ġassociados": 7424,
      "ĠDiretor": 7425,
      "ĠCuritiba": 7426,
      "itivamente": 7427,
      "gueira": 7428,
      "Ġdout": 7429,
      "Ġdaquela": 7430,
      "asses": 7431,
      "Ġestabelecimento": 7432,
      "ulte": 7433,
      "Ġgrat": 7434,
      "Ġaceita": 7435,
      "ĠCin": 7436,
      "Ġencant": 7437,
      "ĠIngl": 7438,
      "Ġescolhido": 7439,
      "Ġtocar": 7440,
      "ĠuniÃ£o": 7441,
      "Ġproporcionar": 7442,
      "ĠsÃ³l": 7443,
      "Ġamizade": 7444,
      "esp": 7445,
      "Ġalcance": 7446,
      "Ġatras": 7447,
      "ĠEsses": 7448,
      "rativas": 7449,
      "ĠNem": 7450,
      "Ġobed": 7451,
      "ĠhÃ¡bitos": 7452,
      "serv": 7453,
      "Ġauton": 7454,
      "Ã³logo": 7455,
      "ĠmilhÃ£o": 7456,
      "Ġconhecidos": 7457,
      "Ġtroc": 7458,
      "2018": 7459,
      "Outra": 7460,
      "ificadas": 7461,
      "Ġforem": 7462,
      "ĠSA": 7463,
      "Ġgovernos": 7464,
      "Ġpaga": 7465,
      "Ġaer": 7466,
      "Ġconversar": 7467,
      "ricas": 7468,
      "Ġestruturas": 7469,
      "ĠcomparaÃ§Ã£o": 7470,
      "amba": 7471,
      "ĠFÃ³r": 7472,
      "oss": 7473,
      "Ġblo": 7474,
      "Ġvento": 7475,
      "bÃ©ns": 7476,
      "Ġformar": 7477,
      "Ġenvolvendo": 7478,
      "Ġquei": 7479,
      "Ġarma": 7480,
      "Ġexplo": 7481,
      "Ġagente": 7482,
      "Ġpostura": 7483,
      "inadas": 7484,
      "Ġataques": 7485,
      "Ã´nico": 7486,
      "Ġbuscando": 7487,
      "lado": 7488,
      "ross": 7489,
      "38": 7490,
      "ĠmÃ¡g": 7491,
      "Ġreconhecer": 7492,
      "orrem": 7493,
      "Ġhabitantes": 7494,
      "ĠLondres": 7495,
      "Ġobject": 7496,
      "Ġgravidez": 7497,
      "ĠHol": 7498,
      "ĠPelo": 7499,
      "ĠBR": 7500,
      "Ġaltamente": 7501,
      "top": 7502,
      "riel": 7503,
      "Ġmatar": 7504,
      "ĠMc": 7505,
      "Ġansiedade": 7506,
      "ĠMach": 7507,
      "Ġhorm": 7508,
      "quei": 7509,
      "aterra": 7510,
      "ĠSta": 7511,
      "ĠcaracterÃŃstica": 7512,
      "Ġgraves": 7513,
      "Ġtornam": 7514,
      "Ġaprendizado": 7515,
      "Ġindo": 7516,
      "Ġrealizou": 7517,
      "itÃ³rio": 7518,
      "ĠAven": 7519,
      "ĠinvÃ©s": 7520,
      "icam": 7521,
      "ravÃ©s": 7522,
      "ĠRodrigo": 7523,
      "Ġgeneral": 7524,
      "Ġestreia": 7525,
      "Ġcentenas": 7526,
      "Ġembar": 7527,
      "ĠaparÃªncia": 7528,
      "igar": 7529,
      "Ġdetermina": 7530,
      "Ġinfraestrutura": 7531,
      "Ġcancel": 7532,
      "Bom": 7533,
      "Ġcaro": 7534,
      "Ġtes": 7535,
      "Ġpref": 7536,
      "Pod": 7537,
      "ĠcombinaÃ§Ã£o": 7538,
      "Ġatitudes": 7539,
      "Ġfinais": 7540,
      "Ġfundos": 7541,
      "Ġtrabalhador": 7542,
      "idel": 7543,
      "Pr": 7544,
      "Ġale": 7545,
      "Ġfilosofia": 7546,
      "Ġbelo": 7547,
      "Ġgostar": 7548,
      "Ġrast": 7549,
      "Ġtrabalham": 7550,
      "ĠBelo": 7551,
      "ĠelaboraÃ§Ã£o": 7552,
      "Ã¡mos": 7553,
      "ndom": 7554,
      "Ġsp": 7555,
      "Ġator": 7556,
      "ĠDigital": 7557,
      "ĠDireitos": 7558,
      "ĠbÃ¡sico": 7559,
      "Ġavis": 7560,
      "ĠTemer": 7561,
      "PO": 7562,
      "ĠalmoÃ§o": 7563,
      "itÃ¡vel": 7564,
      "Ġmandato": 7565,
      "ndem": 7566,
      "ĠAS": 7567,
      "Ġ*": 7568,
      "Ġfeminino": 7569,
      "ĠSport": 7570,
      "Ġsalvar": 7571,
      "ĠsustentÃ¡vel": 7572,
      "Ġmerece": 7573,
      "Ġlivres": 7574,
      "Ġhabitu": 7575,
      "ĠSenhora": 7576,
      "Ġportal": 7577,
      "ilares": 7578,
      "ĠatualizaÃ§Ã£o": 7579,
      "iria": 7580,
      "ĠâĢ¦": 7581,
      "Ġesport": 7582,
      "Ġcaiu": 7583,
      "fera": 7584,
      "Ġatriz": 7585,
      "ĠEstÃ¡": 7586,
      "ĠCarvalho": 7587,
      "ĠMen": 7588,
      "unÃ§Ã£o": 7589,
      "intas": 7590,
      "iador": 7591,
      "ille": 7592,
      "ordeste": 7593,
      "ĠRegiÃ£o": 7594,
      "ĠPalav": 7595,
      "Ġcompat": 7596,
      "onha": 7597,
      "ĠApre": 7598,
      "Ġdeterminada": 7599,
      "rindo": 7600,
      "blog": 7601,
      "Ġvers": 7602,
      "Ġolha": 7603,
      "Ġ2004": 7604,
      "Ġtraduz": 7605,
      "Ġconflitos": 7606,
      "Ġvisando": 7607,
      "ĠsalÃ¡rios": 7608,
      "Ġmanip": 7609,
      "Ġreportagem": 7610,
      "Ġai": 7611,
      "ĠESTES": 7612,
      "ission": 7613,
      "ĠPrinc": 7614,
      "inhar": 7615,
      "ĠVerde": 7616,
      "Ġestaria": 7617,
      "Ġvemos": 7618,
      "Ġconquistar": 7619,
      "Ġaventura": 7620,
      "Nesta": 7621,
      "Ġchuv": 7622,
      "Ġdespre": 7623,
      "ĠdÃª": 7624,
      "Ġcompor": 7625,
      "adre": 7626,
      "2016": 7627,
      "Ġvisitas": 7628,
      "Ġacontecendo": 7629,
      "ĠCampeonato": 7630,
      "eder": 7631,
      "Ġparecia": 7632,
      "Ġdiversidade": 7633,
      "Ġentende": 7634,
      "ĠðŁ": 7635,
      "ioc": 7636,
      "Ġcadeia": 7637,
      "Ġconflito": 7638,
      "Ġfirstname": 7639,
      "ĠlÃ³gica": 7640,
      "199": 7641,
      "Ġeditar": 7642,
      "Ġtrocar": 7643,
      "Ġprodutividade": 7644,
      "esia": 7645,
      "Ġampliar": 7646,
      "47": 7647,
      "Ġfaculdade": 7648,
      "ioca": 7649,
      "operaÃ§Ã£o": 7650,
      "Ġfinanceiros": 7651,
      "Ġpreconc": 7652,
      "ĠanÃºncio": 7653,
      "Ġterminar": 7654,
      "iloto": 7655,
      "ĠClique": 7656,
      "ĠreaÃ§Ã£o": 7657,
      "Ġnaquela": 7658,
      "Ġdizia": 7659,
      "Ġindividuais": 7660,
      "Ġaze": 7661,
      "Ġinformar": 7662,
      "ĠcÃ¢mera": 7663,
      "Ġrigor": 7664,
      "Ġprestar": 7665,
      "Ġparedes": 7666,
      "ĠÃ¡lcool": 7667,
      "ĠPortal": 7668,
      "Ġcargos": 7669,
      "doras": 7670,
      "ĠeconÃ³m": 7671,
      "Ġobrigado": 7672,
      "ratos": 7673,
      "leos": 7674,
      "ĠRÃºssia": 7675,
      "iet": 7676,
      "aqu": 7677,
      "Ġensinar": 7678,
      "ĠContinu": 7679,
      "ressos": 7680,
      "umin": 7681,
      "itivas": 7682,
      "ĠEr": 7683,
      "Ġpatroc": 7684,
      "Ġtribut": 7685,
      "Ġdaqui": 7686,
      "Ġbu": 7687,
      "ĠBern": 7688,
      "2015": 7689,
      "ĠMuitas": 7690,
      "Ġviaj": 7691,
      "ĠdivisÃ£o": 7692,
      "UC": 7693,
      "imenta": 7694,
      "tantes": 7695,
      "Ġuniversidade": 7696,
      "Ġcertas": 7697,
      "ĠfazÃª": 7698,
      "iter": 7699,
      "ĠlanÃ§ar": 7700,
      "Ġcorreto": 7701,
      "ĠEN": 7702,
      "Ġescritor": 7703,
      "Ġcreme": 7704,
      "ĠMartins": 7705,
      "Ġfed": 7706,
      "bios": 7707,
      "ione": 7708,
      "2012": 7709,
      "Ġarrec": 7710,
      "Ġbaixar": 7711,
      "Ġroteiro": 7712,
      "Caso": 7713,
      "Ġmodalidade": 7714,
      "Ġofertas": 7715,
      "ĠauxÃŃlio": 7716,
      "usse": 7717,
      "Ġpresos": 7718,
      "ĠespecÃŃficas": 7719,
      "Ġmoderna": 7720,
      "Ġrural": 7721,
      "Ġportugueses": 7722,
      "ĠrevisÃ£o": 7723,
      "Ġarquitetura": 7724,
      "ĠEX": 7725,
      "ĠSom": 7726,
      "39": 7727,
      "Ãºrg": 7728,
      "Ġseguindo": 7729,
      "Ã¡culos": 7730,
      "ĠcirculaÃ§Ã£o": 7731,
      "ĠOS": 7732,
      "Ġpecado": 7733,
      "Ġcorrig": 7734,
      "unes": 7735,
      "ĠCer": 7736,
      "Ġtreino": 7737,
      "ĠJac": 7738,
      "ostou": 7739,
      "ĠprevÃª": 7740,
      "Ġrus": 7741,
      "Ġtrav": 7742,
      "Ġ2003": 7743,
      "Ġcusta": 7744,
      "ĠAmbiente": 7745,
      "ases": 7746,
      "Ġdefend": 7747,
      "Ġsurge": 7748,
      "ĠameaÃ§a": 7749,
      "ĠcompetÃªncia": 7750,
      "aborar": 7751,
      "ĠAmeric": 7752,
      "ĠDavid": 7753,
      "enÃ§o": 7754,
      "Ġabri": 7755,
      "rido": 7756,
      "ĠprÃªmio": 7757,
      "Ġconvers": 7758,
      "ĠvotaÃ§Ã£o": 7759,
      "âĢĻ,": 7760,
      "zar": 7761,
      "ĠApple": 7762,
      "ĠespecÃŃfica": 7763,
      "ĠconfortÃ¡vel": 7764,
      "Ġcontinuam": 7765,
      "ĠContudo": 7766,
      "Ġfabr": 7767,
      "Ġhabil": 7768,
      "Ġcoluna": 7769,
      "88": 7770,
      "ĠChar": 7771,
      "Ġcomemora": 7772,
      "Ġcen": 7773,
      "amental": 7774,
      "Ġabriu": 7775,
      "Ġacabam": 7776,
      "Ġprotocol": 7777,
      "ĠCir": 7778,
      "Ġligado": 7779,
      "ĠdenÃºncia": 7780,
      "ÃĩA": 7781,
      "urado": 7782,
      "Ġcriminos": 7783,
      "orde": 7784,
      "ebre": 7785,
      "ĠCiÃªncias": 7786,
      "ĠfreqÃ¼": 7787,
      "OB": 7788,
      "Ġregional": 7789,
      "ĠcapÃŃtulo": 7790,
      "ativamente": 7791,
      "Ġaeroporto": 7792,
      "ĠanÃºncios": 7793,
      "Esc": 7794,
      "Ġreper": 7795,
      "Ġalternativas": 7796,
      "Ġelevado": 7797,
      "lhes": 7798,
      "ĠempresÃ¡rios": 7799,
      "ĠCatarina": 7800,
      "inando": 7801,
      "Ġchef": 7802,
      "Ġperformance": 7803,
      "ee": 7804,
      "ĠBio": 7805,
      "ĠBruno": 7806,
      "far": 7807,
      "eirÃ£o": 7808,
      "ĠmÃ¡scara": 7809,
      "Ġbata": 7810,
      "Ġespecific": 7811,
      "Ġ)": 7812,
      "Ġconven": 7813,
      "ĠSr": 7814,
      "Ġcentros": 7815,
      "work": 7816,
      "ĠcristÃ£os": 7817,
      "Enquanto": 7818,
      "ĠCampo": 7819,
      "ĠinclusÃ£o": 7820,
      "ĠobrigaÃ§Ã£o": 7821,
      "Ġmorto": 7822,
      "Ġovos": 7823,
      "ĠPlane": 7824,
      "Ġfruto": 7825,
      "ĠemprÃ©st": 7826,
      "RJ": 7827,
      "grad": 7828,
      "ĠCre": 7829,
      "rigado": 7830,
      "organ": 7831,
      "Ġ150": 7832,
      "rena": 7833,
      "Ġusam": 7834,
      "ĠFran": 7835,
      "Ġdivulgar": 7836,
      "Ġchegaram": 7837,
      "Ġ01": 7838,
      "enez": 7839,
      "ty": 7840,
      "ars": 7841,
      "Ġdeclarou": 7842,
      "ltip": 7843,
      "Ġgesta": 7844,
      "ESP": 7845,
      "criÃ§Ã£o": 7846,
      "Ġmotorista": 7847,
      "plic": 7848,
      "anhe": 7849,
      "Ġfelizes": 7850,
      "Ġqueim": 7851,
      "ĠJardim": 7852,
      "Ġtivemos": 7853,
      "Ġpandemia": 7854,
      "raram": 7855,
      "Ġdepo": 7856,
      "Ġbolo": 7857,
      "Ġsegredo": 7858,
      "Ġprato": 7859,
      "Ġexecutivo": 7860,
      "Ġapoiar": 7861,
      "Ġlist": 7862,
      "Ġbru": 7863,
      "ĠcolaboraÃ§Ã£o": 7864,
      "Ġretirar": 7865,
      "ĠestÃº": 7866,
      "Ġformado": 7867,
      "way": 7868,
      "70": 7869,
      "arta": 7870,
      "ĠEstamos": 7871,
      "Ġmach": 7872,
      "Ġcontinuidade": 7873,
      "ĠlanÃ§ou": 7874,
      "Ġambientais": 7875,
      "ĠPesquisa": 7876,
      "ĠRei": 7877,
      "Publ": 7878,
      "Ġperigo": 7879,
      "cons": 7880,
      "Ġdit": 7881,
      "ose": 7882,
      "omo": 7883,
      "ĠpetrÃ³leo": 7884,
      "Ġautonomia": 7885,
      "Ġpeito": 7886,
      "Ġentreg": 7887,
      "ĠEvang": 7888,
      "ĠArgentina": 7889,
      "voc": 7890,
      "orial": 7891,
      "Ġtorne": 7892,
      "uÃ¡rio": 7893,
      "ĠNA": 7894,
      "Ġremun": 7895,
      "Ġgolpe": 7896,
      "Ġbel": 7897,
      "Ġbatalha": 7898,
      "ĠÃļ": 7899,
      "eiga": 7900,
      "edos": 7901,
      "Ġparecem": 7902,
      "Ġeleg": 7903,
      "Ġassal": 7904,
      "Ġchamados": 7905,
      "Ġcla": 7906,
      "ĠStar": 7907,
      "ĠiluminaÃ§Ã£o": 7908,
      "ĠRibeiro": 7909,
      "Ġvereador": 7910,
      "ĠexploraÃ§Ã£o": 7911,
      "raria": 7912,
      "ĠAbr": 7913,
      "ĠTodas": 7914,
      "ĠinterpretaÃ§Ã£o": 7915,
      "Estamos": 7916,
      "ĠElas": 7917,
      "quad": 7918,
      "ĠÃ¡rvores": 7919,
      "ÃĬNC": 7920,
      "Ġlutar": 7921,
      "Ġhttps": 7922,
      "usc": 7923,
      "ĠEstes": 7924,
      "reza": 7925,
      "estas": 7926,
      "Ġalg": 7927,
      "Ġpudesse": 7928,
      "Ġfolha": 7929,
      "ĠRosa": 7930,
      "Ġras": 7931,
      "ĠÃ¡rvore": 7932,
      "yst": 7933,
      "Ġmig": 7934,
      "ĠÃ©tica": 7935,
      "ĠVe": 7936,
      "ĠClaro": 7937,
      "Quanto": 7938,
      "Ġeditor": 7939,
      "lin": 7940,
      "ĠimÃ³veis": 7941,
      "Ġincluir": 7942,
      "vaÃ§Ãµes": 7943,
      "ĠmanifestaÃ§Ã£o": 7944,
      "Ġrecebido": 7945,
      "ĠPlay": 7946,
      "Ġparcial": 7947,
      "hael": 7948,
      "Ġenfim": 7949,
      "Ġletras": 7950,
      "ĠdimensÃ£o": 7951,
      "izam": 7952,
      "ĠCONT": 7953,
      "ĠsugestÃµes": 7954,
      "ĠquilÃ´metros": 7955,
      "ĠmanifestaÃ§Ãµes": 7956,
      "Ġpreench": 7957,
      "ĠimplementaÃ§Ã£o": 7958,
      "ĠplÃ¡stico": 7959,
      "Ġpermanecer": 7960,
      "Ġfras": 7961,
      "Ġcomposta": 7962,
      "Ġrelativamente": 7963,
      "ĠAD": 7964,
      "Ġmaquia": 7965,
      "Quer": 7966,
      "ĠBon": 7967,
      "Ġpiscina": 7968,
      "Mesmo": 7969,
      "nch": 7970,
      "Ġouvido": 7971,
      "ĠProte": 7972,
      "face": 7973,
      "Ġencontrou": 7974,
      "Ġpouca": 7975,
      "Ġlevado": 7976,
      "ĠlÃŃquido": 7977,
      "Ġrico": 7978,
      "ĠEssas": 7979,
      "ÃĢ": 7980,
      "jÃ¡": 7981,
      "ĠMot": 7982,
      "outube": 7983,
      "ĠAR": 7984,
      "ĠâĢ¢": 7985,
      "ĠresÃŃduos": 7986,
      "Ġpista": 7987,
      "ĠrepresentaÃ§Ã£o": 7988,
      "Ġfirme": 7989,
      "ĠJun": 7990,
      "ĠinspiraÃ§Ã£o": 7991,
      "ĠRafa": 7992,
      "vin": 7993,
      "Ġcompens": 7994,
      "ius": 7995,
      "ADA": 7996,
      "2013": 7997,
      "Ġinteligente": 7998,
      "ÃŃba": 7999,
      "Ġaparelhos": 8000,
      "endes": 8001,
      "ovo": 8002,
      "Ġimpedir": 8003,
      "Ġpublicada": 8004,
      "ĠAcho": 8005,
      "Ġsalas": 8006,
      "Ġmoeda": 8007,
      "Ġpintura": 8008,
      "ĠPh": 8009,
      "Ġmapa": 8010,
      "Ġrevelou": 8011,
      "2014": 8012,
      "Ġprofunda": 8013,
      "Ġprivado": 8014,
      "Ġexclusivo": 8015,
      "dom": 8016,
      "Ġcombater": 8017,
      "Ġpreven": 8018,
      "Ġconsegui": 8019,
      "ĠLemb": 8020,
      "Ġsenador": 8021,
      "Ġcampanhas": 8022,
      "Ġorigin": 8023,
      "eco": 8024,
      "Ãºne": 8025,
      "Ġdisponibilidade": 8026,
      "Ã§al": 8027,
      "ĠInglaterra": 8028,
      "Ġencara": 8029,
      "Ġcomecei": 8030,
      "ĠLet": 8031,
      "inga": 8032,
      "ĠLogo": 8033,
      "ĠinteraÃ§Ã£o": 8034,
      "Ġtitular": 8035,
      "Ġbonita": 8036,
      "Ġacom": 8037,
      "Ġvil": 8038,
      "Ġaposta": 8039,
      "ĠDou": 8040,
      "iscipl": 8041,
      "ĠbÃ¡sica": 8042,
      "ĠdinÃ¢mica": 8043,
      "Ġexag": 8044,
      "omingo": 8045,
      "Ġalterar": 8046,
      "ĠopiniÃµes": 8047,
      "46": 8048,
      "Ġcarb": 8049,
      "Ġhaviam": 8050,
      "ecem": 8051,
      "laÃ§Ã£o": 8052,
      "Ġoficiais": 8053,
      "fonte": 8054,
      "Ġusadas": 8055,
      "Ġjardim": 8056,
      "ĠrecÃ©m": 8057,
      "ĠSc": 8058,
      "ĠRece": 8059,
      "van": 8060,
      "Ġesperando": 8061,
      "Ġapartamento": 8062,
      "El": 8063,
      "Ġdeixam": 8064,
      "Ġapropri": 8065,
      "ĠessÃªncia": 8066,
      "ild": 8067,
      "ĠTrata": 8068,
      "ĠPraÃ§a": 8069,
      "acho": 8070,
      "ERA": 8071,
      "Ġvende": 8072,
      "ĠAntonio": 8073,
      "Ġcorpos": 8074,
      "Ġativa": 8075,
      "Ġdesm": 8076,
      "eck": 8077,
      "ĠMuitos": 8078,
      "Ġsopa": 8079,
      "ĠaviÃ£o": 8080,
      "cond": 8081,
      "reia": 8082,
      "duto": 8083,
      "ĠEuropeia": 8084,
      "Ġdeveriam": 8085,
      "Ġlam": 8086,
      "Ġlazer": 8087,
      "opes": 8088,
      "Ġsabendo": 8089,
      "ĠcÃ£es": 8090,
      "ĠExistem": 8091,
      "Ġchegam": 8092,
      "Ġtecidos": 8093,
      "NO": 8094,
      "ĠRen": 8095,
      "Ġlac": 8096,
      "orro": 8097,
      "Ġmontar": 8098,
      "Ġnesses": 8099,
      "Ġreje": 8100,
      "ĠMÃ©d": 8101,
      "ĠconsideraÃ§Ã£o": 8102,
      "Ġfrag": 8103,
      "Ġdeputados": 8104,
      "Ġirregular": 8105,
      "RS": 8106,
      "Ġforno": 8107,
      "32": 8108,
      "ĠTodo": 8109,
      "Ġwas": 8110,
      "ota": 8111,
      "edas": 8112,
      "ogia": 8113,
      "Ġfinanceiras": 8114,
      "Ġrecuperar": 8115,
      "ĠPern": 8116,
      "ubra": 8117,
      "vÃ£o": 8118,
      "Ġ@": 8119,
      "Ġcare": 8120,
      "ĠEstou": 8121,
      "Ġrepresentante": 8122,
      "Ġran": 8123,
      "Ġneu": 8124,
      "Ġabertas": 8125,
      "ĠIII": 8126,
      "Ġtol": 8127,
      "rgio": 8128,
      "Ġestranho": 8129,
      "Existem": 8130,
      "ĠeletrÃ´nico": 8131,
      "inante": 8132,
      "Ġamost": 8133,
      "Ġbateria": 8134,
      "igual": 8135,
      "ĠcurrÃŃc": 8136,
      "Ġclim": 8137,
      "Ġcolocado": 8138,
      "Ġcenas": 8139,
      "Ġrelevante": 8140,
      "Ġinjust": 8141,
      "Ġmunicipais": 8142,
      "Ġdesejar": 8143,
      "Ġfrust": 8144,
      "deia": 8145,
      "ĠBer": 8146,
      "Ġapresentados": 8147,
      "Ġabus": 8148,
      "cÃ£o": 8149,
      "Ġplaca": 8150,
      "Ġacidentes": 8151,
      "Ġutilizadas": 8152,
      "Ġpreparado": 8153,
      "Ġexpa": 8154,
      "Ġox": 8155,
      "2019": 8156,
      "Ġcapa": 8157,
      "Ġpoderes": 8158,
      "engo": 8159,
      "Ġmuscular": 8160,
      "ĠAlgumas": 8161,
      "Ġorgulho": 8162,
      "Ġcoletiva": 8163,
      "Ġcostuma": 8164,
      "ĠpatrimÃ´nio": 8165,
      "?!": 8166,
      "Ġtemp": 8167,
      "Ġpassageiros": 8168,
      "Prim": 8169,
      "Ġenviado": 8170,
      "ĠFaculdade": 8171,
      "uba": 8172,
      "ĠmÃ³vel": 8173,
      "Ġproduzido": 8174,
      "ĠCara": 8175,
      "aros": 8176,
      "Ġfrom": 8177,
      "ĠFamÃŃlia": 8178,
      "Ġtabela": 8179,
      "diÃ§Ã£o": 8180,
      "ĠInvest": 8181,
      "Ġpratos": 8182,
      "Ġexecutar": 8183,
      "Ã©ditos": 8184,
      "Ġimaginar": 8185,
      "Ġespero": 8186,
      "Ġ2002": 8187,
      "Ġentretanto": 8188,
      "Ġretirada": 8189,
      "icÃŃdio": 8190,
      "ĠMunicÃŃpio": 8191,
      "Ġsag": 8192,
      "ples": 8193,
      "meida": 8194,
      "ĠCaixa": 8195,
      "Ġporte": 8196,
      "ĠExecutivo": 8197,
      "Ġperdido": 8198,
      "Ġparceiro": 8199,
      "Ġamericana": 8200,
      "ertar": 8201,
      "ĠNesta": 8202,
      "fei": 8203,
      "Ġdestacar": 8204,
      "ĠhotÃ©is": 8205,
      "500": 8206,
      "fre": 8207,
      "Ġconsiderados": 8208,
      "vios": 8209,
      "Ġtratamentos": 8210,
      "Ġfatura": 8211,
      "Ġcomputadores": 8212,
      "adeiras": 8213,
      "ĠAvenida": 8214,
      "ĠFestival": 8215,
      "ĠOrganizaÃ§Ã£o": 8216,
      "ĠdepressÃ£o": 8217,
      "Ġmanual": 8218,
      "Ġnatal": 8219,
      "Sal": 8220,
      "Ġcop": 8221,
      "Ġincap": 8222,
      "Ġconter": 8223,
      "Ġconec": 8224,
      "Ġconselho": 8225,
      "ranÃ§as": 8226,
      "tivamente": 8227,
      "Ġenferm": 8228,
      "Ġpedras": 8229,
      "ny": 8230,
      "itÃ£o": 8231,
      "Ġrepara": 8232,
      "ĠPop": 8233,
      "ĠidÃ©ias": 8234,
      "100": 8235,
      "Ġrumo": 8236,
      "ÃŃceis": 8237,
      "Ġfrutos": 8238,
      "ĠfÃ¡brica": 8239,
      "Ġextraord": 8240,
      "ĠImp": 8241,
      "].": 8242,
      "Ġsemestre": 8243,
      "ĠVas": 8244,
      "Ġnutric": 8245,
      "oo": 8246,
      "Ġcamisa": 8247,
      "IOS": 8248,
      "Ġ48": 8249,
      "ULO": 8250,
      "44": 8251,
      "Ġ400": 8252,
      "Ġdescoberta": 8253,
      "Â®": 8254,
      "Ġobserva": 8255,
      "ĠMichel": 8256,
      "Ġsofist": 8257,
      "parÃªncia": 8258,
      "Ġderam": 8259,
      "acos": 8260,
      "Ġengenh": 8261,
      "Ġpura": 8262,
      "Ġ37": 8263,
      "Ġplena": 8264,
      "Ġinteressantes": 8265,
      "DU": 8266,
      "icano": 8267,
      "Ġcoletivo": 8268,
      "Ġcomet": 8269,
      "Ġclicar": 8270,
      "Ġlados": 8271,
      "tus": 8272,
      "Ġmestre": 8273,
      "Ã©x": 8274,
      "Ġbebidas": 8275,
      "ĠAugu": 8276,
      "ĠCiÃªncia": 8277,
      "Ġchamou": 8278,
      "intos": 8279,
      "Ġabsolut": 8280,
      "Ġoptar": 8281,
      "Ġabrang": 8282,
      "Ġperfeitamente": 8283,
      "Ġges": 8284,
      "roup": 8285,
      "ĠAll": 8286,
      "ĠEngenharia": 8287,
      "Ãªx": 8288,
      "ĠEconÃ´m": 8289,
      "editar": 8290,
      "ĠGre": 8291,
      "Ġproporciona": 8292,
      "eralmente": 8293,
      "Ġend": 8294,
      "Ġdesempre": 8295,
      "Ġtras": 8296,
      "Ġromance": 8297,
      "Ġpago": 8298,
      "Ġpend": 8299,
      "Ġtrajet": 8300,
      "Ġunif": 8301,
      "Ġdevo": 8302,
      "Ġcum": 8303,
      "Ġmadru": 8304,
      "Ġber": 8305,
      "ĠNunca": 8306,
      "illa": 8307,
      "ĠdiÃ¡ria": 8308,
      "Ġdescobri": 8309,
      "Ġevolu": 8310,
      "Ġatac": 8311,
      "Ġ38": 8312,
      "Ġsombra": 8313,
      "ĠOnline": 8314,
      "Ġhistor": 8315,
      "saÃ§Ãµes": 8316,
      "ĠdifÃŃceis": 8317,
      "Ġarroz": 8318,
      "ÃŃfico": 8319,
      "Ġesclarec": 8320,
      "iantes": 8321,
      "Ġconstantemente": 8322,
      "Tal": 8323,
      "Ġcarteira": 8324,
      "ĠIntegra": 8325,
      "Ã±": 8326,
      "Ġpositiva": 8327,
      "rimas": 8328,
      "duras": 8329,
      "ĠFigu": 8330,
      "Ġteremos": 8331,
      "ĠmatÃ©rias": 8332,
      "ĠmÃŃnima": 8333,
      "Ġliga": 8334,
      "Ġlanc": 8335,
      "Ġmaravilhoso": 8336,
      "Ġinflam": 8337,
      "Ġcrescente": 8338,
      "ey": 8339,
      "Ġflor": 8340,
      "Ġespecializada": 8341,
      "Clique": 8342,
      "Ġmensal": 8343,
      "Ġinstalar": 8344,
      "Ġcolon": 8345,
      "Ġabast": 8346,
      "Ġliqu": 8347,
      "ĠFaÃ§a": 8348,
      "ART": 8349,
      "ĠcÃ£o": 8350,
      "Ġmetal": 8351,
      "ĠquÃª": 8352,
      "Ġneut": 8353,
      "Ġuniversidades": 8354,
      "ĠCL": 8355,
      "Ġclub": 8356,
      "ÃŃtio": 8357,
      "Ġoperacional": 8358,
      "Ġdetec": 8359,
      "ĠHorizonte": 8360,
      "ĠWhat": 8361,
      "Ġbanheiro": 8362,
      "ĠFoto": 8363,
      "ĠConv": 8364,
      "au": 8365,
      "imp": 8366,
      "ĠcardÃŃ": 8367,
      "Ġescond": 8368,
      "Ou": 8369,
      "ĠLink": 8370,
      "Ġgratuita": 8371,
      "ivado": 8372,
      "Ġadolescente": 8373,
      "Ġrecicl": 8374,
      "Ġexperimentar": 8375,
      "ĠSTF": 8376,
      "Ġfornecedores": 8377,
      "Ãł": 8378,
      "Ġtransm": 8379,
      "ĠestÃ¡gio": 8380,
      "Ġfazemos": 8381,
      "aneamente": 8382,
      "Ġtrem": 8383,
      "ĠindicaÃ§Ã£o": 8384,
      "Ġencontrados": 8385,
      "Ġcaptura": 8386,
      "Ġup": 8387,
      "ĠJer": 8388,
      "Ġexterna": 8389,
      "ĠAust": 8390,
      "ĠTenho": 8391,
      "iras": 8392,
      "ĠhipÃ³tese": 8393,
      "?âĢĿ": 8394,
      "ĠpercepÃ§Ã£o": 8395,
      "Ġparticipou": 8396,
      "ĠmÃ£es": 8397,
      "Ġcientistas": 8398,
      "Ġcaminhada": 8399,
      "inÃ§Ã£o": 8400,
      "Ġdesn": 8401,
      "ĠexcelÃªncia": 8402,
      "ĠocorrÃªncia": 8403,
      "Ġefetu": 8404,
      "Nesse": 8405,
      "Ġpainel": 8406,
      "Ġnela": 8407,
      "Ġgerais": 8408,
      "ĠjurÃŃdico": 8409,
      "dios": 8410,
      "ĠmÃºltip": 8411,
      "gen": 8412,
      "ĠMÃ©dio": 8413,
      "Ġintuito": 8414,
      "Ġplataformas": 8415,
      "Ġwork": 8416,
      "Ġsold": 8417,
      "jamos": 8418,
      "Ġcolocou": 8419,
      "aba": 8420,
      "ĠBand": 8421,
      "2011": 8422,
      "essas": 8423,
      "Ġvendo": 8424,
      "Ġencar": 8425,
      "Ġtons": 8426,
      "Ġsenha": 8427,
      "ĠEmpre": 8428,
      "Ġlevam": 8429,
      "ĠsuspensÃ£o": 8430,
      "Ġafas": 8431,
      "ĠAlexandre": 8432,
      "Ġativo": 8433,
      "Ġclaramente": 8434,
      "ox": 8435,
      "Ġrecorre": 8436,
      "ificando": 8437,
      "ĠPessoa": 8438,
      "Ġrecolh": 8439,
      "ĠPort": 8440,
      "low": 8441,
      "Ġacost": 8442,
      "ĠMato": 8443,
      "Ġcurta": 8444,
      "Ġapresentada": 8445,
      "ÃŃsica": 8446,
      "Ġshows": 8447,
      "Ġfamosa": 8448,
      "Ġpris": 8449,
      "Ġbaseada": 8450,
      "ĠDessa": 8451,
      "Ġcombina": 8452,
      "Ġiniciou": 8453,
      "eixes": 8454,
      "ĠUrb": 8455,
      "Ġenvia": 8456,
      "Ġescap": 8457,
      "Ġtrecho": 8458,
      "Ġinex": 8459,
      "Ġvelha": 8460,
      "ĠPrecis": 8461,
      "ĠTurismo": 8462,
      "IAL": 8463,
      "eth": 8464,
      "fl": 8465,
      "BL": 8466,
      "ĠArte": 8467,
      "Ġcortes": 8468,
      "ebra": 8469,
      "Ã¡vamos": 8470,
      "Ġaponta": 8471,
      "ĠMeio": 8472,
      "Ġrenov": 8473,
      "Ġelenco": 8474,
      "Ġintensidade": 8475,
      "49": 8476,
      "ĠAir": 8477,
      "ĠAtualmente": 8478,
      "ĠÃ©t": 8479,
      "Ġexclusiva": 8480,
      "usou": 8481,
      "Ġcort": 8482,
      "Ġjusto": 8483,
      "ĠJogos": 8484,
      "Ġcompare": 8485,
      "Ġturistas": 8486,
      "Ġorganizado": 8487,
      "ĠCla": 8488,
      "ĠSER": 8489,
      "Ġempreendedor": 8490,
      "Ġacord": 8491,
      "Ter": 8492,
      "Ġexpor": 8493,
      "Ġrosa": 8494,
      "idariedade": 8495,
      "ĠMedicina": 8496,
      "Ġzero": 8497,
      "Ġnaturalmente": 8498,
      "Ġlateral": 8499,
      "ĠperÃŃodos": 8500,
      "Ġdeterminar": 8501,
      "feiÃ§o": 8502,
      "Ġsolicitar": 8503,
      "Ġintegrantes": 8504,
      "ĠhorÃ¡rios": 8505,
      "Ġpagamentos": 8506,
      "ĠSociedade": 8507,
      "nal": 8508,
      "cal": 8509,
      "fab": 8510,
      "77": 8511,
      "vidos": 8512,
      "Ġengan": 8513,
      "utado": 8514,
      "Ġsemelhantes": 8515,
      "Ġturma": 8516,
      "ĠPernamb": 8517,
      "Ġ33": 8518,
      "ĠLucas": 8519,
      "Dire": 8520,
      "ĠPap": 8521,
      "Ġmarcado": 8522,
      "Ġnecessariamente": 8523,
      "Ġpercurso": 8524,
      "Ġinteira": 8525,
      "ĠAlmeida": 8526,
      "inam": 8527,
      "ĠeficÃ¡cia": 8528,
      "Ġestivesse": 8529,
      "ÃŃvio": 8530,
      "Ġinterrom": 8531,
      "AG": 8532,
      "mod": 8533,
      "Ġprefere": 8534,
      "erna": 8535,
      "ĠPalavra": 8536,
      "PP": 8537,
      "agre": 8538,
      "Ġ2021": 8539,
      "ĠCart": 8540,
      "Ġimediato": 8541,
      "Ġprocure": 8542,
      "Embora": 8543,
      "Ġentregue": 8544,
      "Ġinvestidores": 8545,
      "Ġprivacidade": 8546,
      "Ġtentou": 8547,
      "Ġ09": 8548,
      "Ġatmos": 8549,
      "unas": 8550,
      "ĠpotÃªncia": 8551,
      "inete": 8552,
      "ĠMendes": 8553,
      "Ġconviv": 8554,
      "VE": 8555,
      "ĠId": 8556,
      "Ġyour": 8557,
      "Ã©xico": 8558,
      "Ġdigo": 8559,
      "Ġdetalhe": 8560,
      "ilson": 8561,
      "posiÃ§Ãµes": 8562,
      "Ġafirmar": 8563,
      "Ġforex": 8564,
      "ĠfÃŃsicos": 8565,
      "Nas": 8566,
      "Ġlinks": 8567,
      "Ã¢nicos": 8568,
      ":||": 8569,
      "ĠincÃªnd": 8570,
      "EIRA": 8571,
      "rÃ´": 8572,
      "Â·": 8573,
      "Ġmedicina": 8574,
      "rava": 8575,
      "udou": 8576,
      "BR": 8577,
      "Ġunhas": 8578,
      "Ġlas": 8579,
      "Ġconsiderando": 8580,
      "Ġseca": 8581,
      "Ġrespondeu": 8582,
      "Ġcoopera": 8583,
      "Alguns": 8584,
      "ĠPac": 8585,
      "Ã´nios": 8586,
      "ĠMercado": 8587,
      "entil": 8588,
      "Ġanual": 8589,
      "Ġtestemun": 8590,
      "Ġultrapass": 8591,
      "ĠdiÃ¡rio": 8592,
      "ĠCultural": 8593,
      "els": 8594,
      "ript": 8595,
      "Ġconstitucional": 8596,
      "Ġfarinha": 8597,
      "ĠFlam": 8598,
      "Ġoferec": 8599,
      "Ġcheiro": 8600,
      "ĠcobranÃ§a": 8601,
      "ĠCond": 8602,
      "ĠtensÃ£o": 8603,
      "Ã¢ntico": 8604,
      "Meu": 8605,
      "Ġpron": 8606,
      "ĠBoa": 8607,
      "Ġdesenhos": 8608,
      "Ġencontros": 8609,
      "Ġcos": 8610,
      "ĠsubstÃ¢ncias": 8611,
      "ĠPass": 8612,
      "Ġresulta": 8613,
      "quÃª": 8614,
      "Ġgradu": 8615,
      "Ġriqueza": 8616,
      "Ġemocion": 8617,
      "Ġsuperiores": 8618,
      "Ġacontecimentos": 8619,
      "Ġafric": 8620,
      "ĠNada": 8621,
      "Ġmerec": 8622,
      "rigada": 8623,
      "ĠAno": 8624,
      "ward": 8625,
      "ĠcombustÃŃvel": 8626,
      "ronomia": 8627,
      "Ġpeixe": 8628,
      "ĠDu": 8629,
      "Ġdesejos": 8630,
      "Ġhabilidade": 8631,
      "Ġpolu": 8632,
      "ĠsaudÃ¡veis": 8633,
      "Ġambas": 8634,
      "Ġtoca": 8635,
      "Ãºnior": 8636,
      "ĠSara": 8637,
      "ĠcartÃµes": 8638,
      "Ġaprofund": 8639,
      "Ġsubir": 8640,
      "Ġpromove": 8641,
      "Ġ195": 8642,
      "85": 8643,
      "Ġonda": 8644,
      "Ġoferecendo": 8645,
      "Ġagend": 8646,
      "Ġproxim": 8647,
      "Ġnutri": 8648,
      "pirar": 8649,
      "Ġgerenc": 8650,
      "ĠpolÃªm": 8651,
      "Ġsufic": 8652,
      "Ġdefinido": 8653,
      "Ġespect": 8654,
      "Ġcompreend": 8655,
      "Pl": 8656,
      "Ġnecessita": 8657,
      "Ġcantora": 8658,
      "ÃŃdios": 8659,
      "ĠMelhor": 8660,
      "Ġante": 8661,
      "Ġrevest": 8662,
      "Ġacompanhado": 8663,
      "Ġconseguimos": 8664,
      "ĠIb": 8665,
      "ream": 8666,
      "Ġcobra": 8667,
      "ĠAbril": 8668,
      "Ġgerenciamento": 8669,
      "erdo": 8670,
      "Ġinvas": 8671,
      "Ġextrema": 8672,
      "usias": 8673,
      "ĠLeia": 8674,
      "ĠTim": 8675,
      "Ã³lico": 8676,
      "Ġareia": 8677,
      "ĠVar": 8678,
      "Ġinvad": 8679,
      "Ġrepresentam": 8680,
      "Ġtrazendo": 8681,
      "Ġfasc": 8682,
      "vid": 8683,
      "Ġcouro": 8684,
      "rud": 8685,
      "ĠGrosso": 8686,
      "Ġanteced": 8687,
      "ĠSÃ©rgio": 8688,
      "Ġsabedoria": 8689,
      "Dia": 8690,
      "ĠFernand": 8691,
      "Ġprivileg": 8692,
      "ispo": 8693,
      "Ġrelevantes": 8694,
      "Ġabsur": 8695,
      "Ġgame": 8696,
      "Ġconsa": 8697,
      "Ġeliminar": 8698,
      "och": 8699,
      "itoria": 8700,
      "Ġclasses": 8701,
      "Ġaparecem": 8702,
      "ĠbraÃ§o": 8703,
      "ĠÃłqu": 8704,
      "Ġdezenas": 8705,
      "ĠDistrito": 8706,
      "Cada": 8707,
      "mm": 8708,
      "Ġcamada": 8709,
      "ĠHomem": 8710,
      "Ġrecebem": 8711,
      "Ġreto": 8712,
      "ĠavanÃ§o": 8713,
      "Ġcampeonato": 8714,
      "Ġincomp": 8715,
      "ĠPraia": 8716,
      "ĠCA": 8717,
      "Ġatento": 8718,
      "Ġsofreu": 8719,
      "ĠformulÃ¡rio": 8720,
      "Ġimobil": 8721,
      "ĠUnido": 8722,
      "ĠBranco": 8723,
      "ESS": 8724,
      "ĠOutro": 8725,
      "Reg": 8726,
      "Ġaplica": 8727,
      "gante": 8728,
      "Ġfabricante": 8729,
      "Ġempresarial": 8730,
      "ella": 8731,
      "Ġidosos": 8732,
      "Ġpux": 8733,
      "ĠPubl": 8734,
      "iÃ¡vel": 8735,
      "Ġfres": 8736,
      "Ġinteg": 8737,
      "ĠhistÃ³rica": 8738,
      "BC": 8739,
      "ulhos": 8740,
      "Ġarrecad": 8741,
      "berg": 8742,
      "Ġjornais": 8743,
      "ĠemergÃªncia": 8744,
      "PC": 8745,
      "ĠmÃ³d": 8746,
      "fice": 8747,
      "ertos": 8748,
      "ingos": 8749,
      "pal": 8750,
      "Ġpercent": 8751,
      "ĠPaulista": 8752,
      "Ġcron": 8753,
      "Ġposteriormente": 8754,
      "Ġfugir": 8755,
      "ĠOf": 8756,
      "Ġmarcada": 8757,
      "ĠAte": 8758,
      "usto": 8759,
      "ĠindÃŃgenas": 8760,
      "ĠposiÃ§Ãµes": 8761,
      "cm": 8762,
      "Ġembalagem": 8763,
      "Ġramo": 8764,
      "Ġrad": 8765,
      "oga": 8766,
      "Sa": 8767,
      "Ġestresse": 8768,
      "Ġmata": 8769,
      ".|": 8770,
      "Gu": 8771,
      "erados": 8772,
      "Ġjornalistas": 8773,
      "Ġsecund": 8774,
      "ĠEg": 8775,
      "Ġimpro": 8776,
      "ĠPrimeiro": 8777,
      "Ġimposto": 8778,
      "Ġnorma": 8779,
      "ĠServ": 8780,
      "ifere": 8781,
      "ĠaÃ§o": 8782,
      "Ġmadrugada": 8783,
      "istemas": 8784,
      "ĠForam": 8785,
      "FaÃ§a": 8786,
      "Ġluxo": 8787,
      "66": 8788,
      "ÃŃnios": 8789,
      "Ġnamoro": 8790,
      "ĠfabricaÃ§Ã£o": 8791,
      "Porque": 8792,
      "Ġcoleta": 8793,
      "ĠreÃºne": 8794,
      "Ġdenom": 8795,
      "Ġiniciativas": 8796,
      "75": 8797,
      "Ġmargem": 8798,
      "Pol": 8799,
      "ĠDesign": 8800,
      "estor": 8801,
      "Ġcorporal": 8802,
      "Ġatores": 8803,
      "ĠSto": 8804,
      "kk": 8805,
      "rela": 8806,
      "Ġpiso": 8807,
      "ĠDesc": 8808,
      "Ġsuperar": 8809,
      "Ġcomunicado": 8810,
      "Ġabsolutamente": 8811,
      "DES": 8812,
      "Ġconsta": 8813,
      "--": 8814,
      "Ġexped": 8815,
      "arant": 8816,
      "Ag": 8817,
      "Ġvergon": 8818,
      "Ġroda": 8819,
      "Ġ2001": 8820,
      "ucle": 8821,
      "Ġabst": 8822,
      "ĠconsequÃªncia": 8823,
      "Ġpratica": 8824,
      "ĠraÃ§a": 8825,
      "alhas": 8826,
      "Ġmecanismos": 8827,
      "Ġescolhas": 8828,
      "Ġcomentar": 8829,
      "Ġpraias": 8830,
      "fac": 8831,
      "ĠBan": 8832,
      "gaÃ§Ã£o": 8833,
      "oluÃ§Ã£o": 8834,
      "ĠUM": 8835,
      "li": 8836,
      "Ġdefende": 8837,
      "Ġcro": 8838,
      "ĠDoc": 8839,
      "ejo": 8840,
      "Ġaltas": 8841,
      "ĠCearÃ¡": 8842,
      "Ġestamp": 8843,
      "ĠHumanos": 8844,
      "Ġprevent": 8845,
      "Ġadicionar": 8846,
      "ĠArtes": 8847,
      "Ġvinha": 8848,
      "Ġesquema": 8849,
      "Ġbiol": 8850,
      "ĠFisc": 8851,
      "Ġinfelizmente": 8852,
      "Ġencontramos": 8853,
      "Ġomb": 8854,
      "ĠtÃ³p": 8855,
      "ĠespetÃ¡culo": 8856,
      "ĠHD": 8857,
      "2010": 8858,
      "back": 8859,
      "Ġmantendo": 8860,
      "dire": 8861,
      "Bem": 8862,
      "Ġassegurar": 8863,
      "Ġpostos": 8864,
      "Ġprodutor": 8865,
      "ĠNorm": 8866,
      "Ġgostam": 8867,
      "ĠfenÃ´meno": 8868,
      "Ãªme": 8869,
      "Ġprogress": 8870,
      "Ġdivulgado": 8871,
      "ĠBlack": 8872,
      "ulam": 8873,
      "Su": 8874,
      "Ġhumil": 8875,
      "Ġvisualizar": 8876,
      "ĠLua": 8877,
      "ĠSobre": 8878,
      "Ġchamadas": 8879,
      "ĠnoÃ§Ã£o": 8880,
      "Ġprevista": 8881,
      "Ġflag": 8882,
      "Ã©cia": 8883,
      "ĠpraÃ§a": 8884,
      "Ġmulta": 8885,
      "Ġricos": 8886,
      "Ġhonra": 8887,
      "Ġartific": 8888,
      "igh": 8889,
      "Ġexplorar": 8890,
      "Ġligados": 8891,
      "Ġreino": 8892,
      "Ġgarota": 8893,
      "Ġdenunc": 8894,
      "Ġintest": 8895,
      "Ġpiloto": 8896,
      "ĠPan": 8897,
      "ĠCoorden": 8898,
      "Ġcorretamente": 8899,
      "Ã¡bado": 8900,
      "ĠTa": 8901,
      "Saiba": 8902,
      "Ġamplo": 8903,
      "Ġrapaz": 8904,
      "ĠclÃŃnica": 8905,
      "ĠRocha": 8906,
      "ĠdedicaÃ§Ã£o": 8907,
      "Ġtan": 8908,
      "Ġespanhol": 8909,
      "izaÃ§Ãµes": 8910,
      "Ġdisposto": 8911,
      "Pres": 8912,
      "Conc": 8913,
      "essar": 8914,
      "ĠfÃ³rmula": 8915,
      "ring": 8916,
      "Ġbrig": 8917,
      "Cap": 8918,
      "ĠlicenÃ§a": 8919,
      "ĠPO": 8920,
      "ĠbÃ¡sicos": 8921,
      "Ġalt": 8922,
      "ĠrefeiÃ§Ãµes": 8923,
      "tÃ³rios": 8924,
      "Ġbeber": 8925,
      "Ġmaquiagem": 8926,
      "Ġtido": 8927,
      "ĠatraÃ§Ãµes": 8928,
      "ĠFundo": 8929,
      "Ġparto": 8930,
      "Pode": 8931,
      "Ġderru": 8932,
      "ĠVieira": 8933,
      "CON": 8934,
      "Ġhem": 8935,
      "tre": 8936,
      "ĠpreservaÃ§Ã£o": 8937,
      "net": 8938,
      "ĠMonte": 8939,
      "Ġexplos": 8940,
      "ĠemissÃ£o": 8941,
      "ĠRoma": 8942,
      "Ġgor": 8943,
      "Ġinfec": 8944,
      "ĠinÃºmeros": 8945,
      "itÃ¡rias": 8946,
      "ĠajudÃ¡": 8947,
      "Part": 8948,
      "Ġparticularmente": 8949,
      "ĠsÃŃmbolo": 8950,
      "Ġtarif": 8951,
      "ianas": 8952,
      "Ġta": 8953,
      "ĠPromo": 8954,
      "Ġautora": 8955,
      "Ġinse": 8956,
      "Ġtempor": 8957,
      "ĠreferÃªncias": 8958,
      "Ġsimult": 8959,
      "Ġintelectual": 8960,
      "ĠsÃ©culos": 8961,
      "Ġdemas": 8962,
      "ĠadaptaÃ§Ã£o": 8963,
      "Ġconcret": 8964,
      "Ġatleta": 8965,
      "ĠFazenda": 8966,
      "Ġprofundo": 8967,
      "ilÃ¢ncia": 8968,
      "ultores": 8969,
      "ĠMov": 8970,
      "Ġwebsite": 8971,
      "Ġdram": 8972,
      "ĠUs": 8973,
      "ĠSob": 8974,
      "Ġtranspare": 8975,
      "feita": 8976,
      "ĠemoÃ§Ã£o": 8977,
      "ĠLar": 8978,
      "ĠcompetÃªncias": 8979,
      "Ġconform": 8980,
      "Ã§adas": 8981,
      "Ġplen": 8982,
      "Ġsimilar": 8983,
      "Ġmarcar": 8984,
      "ĠRet": 8985,
      "Ġformada": 8986,
      "ĠcalendÃ¡rio": 8987,
      "Ġcompletar": 8988,
      "Estou": 8989,
      "Ġarmazenamento": 8990,
      "ĠcÃ¢mara": 8991,
      "Ġvenha": 8992,
      "Ġ34": 8993,
      "Ġcoro": 8994,
      "Ġsementes": 8995,
      "ĠDiÃ¡rio": 8996,
      "Ġpalestras": 8997,
      "ĠDez": 8998,
      "ĠTI": 8999,
      "Ġpav": 9000,
      "ĠDES": 9001,
      "ĠXV": 9002,
      "Ã³f": 9003,
      "Ġproje": 9004,
      "utados": 9005,
      "ĠLopes": 9006,
      "Ġja": 9007,
      "ĠDOS": 9008,
      "uca": 9009,
      "Ġtomou": 9010,
      "Ġprojecto": 9011,
      "Ġclubes": 9012,
      "Ġarrum": 9013,
      "ĠÃŃnt": 9014,
      "ĠrÃ©": 9015,
      "ĠAntÃ³nio": 9016,
      "Ġdedos": 9017,
      "ĠBarbosa": 9018,
      "ĠOutra": 9019,
      "ĠagrÃŃc": 9020,
      "Ġdid": 9021,
      "ore": 9022,
      "Ġreform": 9023,
      "Ġinimigos": 9024,
      "Ã©ticas": 9025,
      "ĠINT": 9026,
      "ĠprovÃ¡vel": 9027,
      "AMENTO": 9028,
      "Ġsant": 9029,
      "Ġbebida": 9030,
      "ispens": 9031,
      "ĠAma": 9032,
      "ther": 9033,
      "Ġadicional": 9034,
      "dutos": 9035,
      "iness": 9036,
      "Ġviva": 9037,
      "ko": 9038,
      "ĠAbra": 9039,
      "Ġquadros": 9040,
      "ĠpaciÃªncia": 9041,
      "Ġsenti": 9042,
      "Ġsecre": 9043,
      "Ġcrimin": 9044,
      "ÃŃmos": 9045,
      "Ġpoesia": 9046,
      "Ġantigas": 9047,
      "ĠVitÃ³ria": 9048,
      "Ġindire": 9049,
      "Ġletra": 9050,
      "Ġvirou": 9051,
      "Ġgastar": 9052,
      "Ġcostumam": 9053,
      "iologia": 9054,
      "geral": 9055,
      "Ġtonel": 9056,
      "rade": 9057,
      "Ġfiel": 9058,
      "ĠprejuÃŃzo": 9059,
      "Ġestabilidade": 9060,
      "arch": 9061,
      "rip": 9062,
      "Ġaumentando": 9063,
      "Ġparlamentar": 9064,
      "Ġsustentabilidade": 9065,
      "Ġreiv": 9066,
      "ĠJack": 9067,
      "Ġpraticar": 9068,
      "aranja": 9069,
      "Ġindicar": 9070,
      "ouco": 9071,
      "Ġentusias": 9072,
      "Ġfot": 9073,
      "ĠconcorrÃªncia": 9074,
      "ĠCorte": 9075,
      "Ġrepresentar": 9076,
      "Ġintensa": 9077,
      "89": 9078,
      "Ġexplora": 9079,
      "Ġbl": 9080,
      "ĠPapa": 9081,
      "Pra": 9082,
      "ĠLeon": 9083,
      "ĠproprietÃ¡rio": 9084,
      "yn": 9085,
      "Ġdr": 9086,
      "ĠtraduÃ§Ã£o": 9087,
      "Ġdesenc": 9088,
      "Ġtreinador": 9089,
      "Ġarr": 9090,
      "Ġdose": 9091,
      "ĠQuer": 9092,
      "Ġtru": 9093,
      "Ġestimular": 9094,
      "ÃŃcara": 9095,
      "elhas": 9096,
      "Ġous": 9097,
      "Ġbact": 9098,
      "Ġqueijo": 9099,
      "Ġcontratar": 9100,
      "Ġagricultura": 9101,
      "GE": 9102,
      "Ġsoci": 9103,
      "Ġazeite": 9104,
      "ĠministÃ©rio": 9105,
      "Ġalugu": 9106,
      "Ġcoordenador": 9107,
      "ĠabraÃ§o": 9108,
      "Ġrevis": 9109,
      "Ġlot": 9110,
      "ĠnaÃ§Ã£o": 9111,
      "Ġexistente": 9112,
      "ĠanÃ¡l": 9113,
      "Ġcerveja": 9114,
      "PL": 9115,
      "Ġdatas": 9116,
      "Ġtum": 9117,
      "ĠdiminuiÃ§Ã£o": 9118,
      "ĠCert": 9119,
      "Ġjude": 9120,
      "Ġ02": 9121,
      "ĠrelÃ³g": 9122,
      "ensas": 9123,
      "ndepend": 9124,
      "Ġgab": 9125,
      "Ġinicialmente": 9126,
      "Encont": 9127,
      "iat": 9128,
      "Ġpenal": 9129,
      "ĠPernambuco": 9130,
      "ĠmÃºsculos": 9131,
      "Ġcolocando": 9132,
      "ĠMira": 9133,
      "Ġsc": 9134,
      "adÃ¡": 9135,
      "ĠÃįndia": 9136,
      "Ġfizemos": 9137,
      "ĠRafael": 9138,
      "Ġtrag": 9139,
      "Ġsacrif": 9140,
      "Ġamam": 9141,
      "zi": 9142,
      "ĠFortal": 9143,
      "Ġespal": 9144,
      "ĠJÃºnior": 9145,
      "Ġcartas": 9146,
      "Ġexpand": 9147,
      "Â§": 9148,
      "ĠCunha": 9149,
      "Post": 9150,
      "Ġprecisava": 9151,
      "ĠtrajetÃ³ria": 9152,
      "Ing": 9153,
      "ped": 9154,
      "Ġterrit": 9155,
      "Ã¡gua": 9156,
      "EF": 9157,
      "ĠBru": 9158,
      "Ġactu": 9159,
      "Ġfases": 9160,
      "ĠcircunstÃ¢ncias": 9161,
      "ĠMÃ©xico": 9162,
      "quete": 9163,
      "itÃª": 9164,
      "ĠOpera": 9165,
      "Temos": 9166,
      "ĠFlamengo": 9167,
      "Ġkg": 9168,
      "ani": 9169,
      "Ġadmira": 9170,
      "Ġdoces": 9171,
      "Ġmultipl": 9172,
      "Ġatende": 9173,
      "ĠFelipe": 9174,
      "Ġestrangeiros": 9175,
      "Ġpromet": 9176,
      "ĠAcred": 9177,
      "rof": 9178,
      "trizes": 9179,
[...]
